<pad>	0
<unk>	0
<s>	0
</s>	0
<image>	0
</image>	0
<image_pad>	0
<tool_call>	0
</tool_call>	0
<tool_result>	0
<|system|>	0
</|user|>	0
</|assistant|>	0
<0x00>	0
<0x01>	0
<0x02>	0
<0x03>	0
<0x04>	0
<0x05>	0
<0x06>	0
<0x07>	0
<0x08>	0
<0x09>	0
<0x0A>	0
<0x0B>	0
<0x0C>	0
<0x0D>	0
<0x0E>	0
<0x0F>	0
<0x10>	0
<0x11>	0
<0x12>	0
<0x13>	0
<0x14>	0
<0x15>	0
<0x16>	0
<0x17>	0
<0x18>	0
<0x19>	0
<0x1A>	0
<0x1B>	0
<0x1C>	0
<0x1D>	0
<0x1E>	0
<0x1F>	0
<0x20>	0
<0x21>	0
<0x22>	0
<0x23>	0
<0x24>	0
<0x25>	0
<0x26>	0
<0x27>	0
<0x28>	0
<0x29>	0
<0x2A>	0
<0x2B>	0
<0x2C>	0
<0x2D>	0
<0x2E>	0
<0x2F>	0
<0x30>	0
<0x31>	0
<0x32>	0
<0x33>	0
<0x34>	0
<0x35>	0
<0x36>	0
<0x37>	0
<0x38>	0
<0x39>	0
<0x3A>	0
<0x3B>	0
<0x3C>	0
<0x3D>	0
<0x3E>	0
<0x3F>	0
<0x40>	0
<0x41>	0
<0x42>	0
<0x43>	0
<0x44>	0
<0x45>	0
<0x46>	0
<0x47>	0
<0x48>	0
<0x49>	0
<0x4A>	0
<0x4B>	0
<0x4C>	0
<0x4D>	0
<0x4E>	0
<0x4F>	0
<0x50>	0
<0x51>	0
<0x52>	0
<0x53>	0
<0x54>	0
<0x55>	0
<0x56>	0
<0x57>	0
<0x58>	0
<0x59>	0
<0x5A>	0
<0x5B>	0
<0x5C>	0
<0x5D>	0
<0x5E>	0
<0x5F>	0
<0x60>	0
<0x61>	0
<0x62>	0
<0x63>	0
<0x64>	0
<0x65>	0
<0x66>	0
<0x67>	0
<0x68>	0
<0x69>	0
<0x6A>	0
<0x6B>	0
<0x6C>	0
<0x6D>	0
<0x6E>	0
<0x6F>	0
<0x70>	0
<0x71>	0
<0x72>	0
<0x73>	0
<0x74>	0
<0x75>	0
<0x76>	0
<0x77>	0
<0x78>	0
<0x79>	0
<0x7A>	0
<0x7B>	0
<0x7C>	0
<0x7D>	0
<0x7E>	0
<0x7F>	0
<0x80>	0
<0x81>	0
<0x82>	0
<0x83>	0
<0x84>	0
<0x85>	0
<0x86>	0
<0x87>	0
<0x88>	0
<0x89>	0
<0x8A>	0
<0x8B>	0
<0x8C>	0
<0x8D>	0
<0x8E>	0
<0x8F>	0
<0x90>	0
<0x91>	0
<0x92>	0
<0x93>	0
<0x94>	0
<0x95>	0
<0x96>	0
<0x97>	0
<0x98>	0
<0x99>	0
<0x9A>	0
<0x9B>	0
<0x9C>	0
<0x9D>	0
<0x9E>	0
<0x9F>	0
<0xA0>	0
<0xA1>	0
<0xA2>	0
<0xA3>	0
<0xA4>	0
<0xA5>	0
<0xA6>	0
<0xA7>	0
<0xA8>	0
<0xA9>	0
<0xAA>	0
<0xAB>	0
<0xAC>	0
<0xAD>	0
<0xAE>	0
<0xAF>	0
<0xB0>	0
<0xB1>	0
<0xB2>	0
<0xB3>	0
<0xB4>	0
<0xB5>	0
<0xB6>	0
<0xB7>	0
<0xB8>	0
<0xB9>	0
<0xBA>	0
<0xBB>	0
<0xBC>	0
<0xBD>	0
<0xBE>	0
<0xBF>	0
<0xC0>	0
<0xC1>	0
<0xC2>	0
<0xC3>	0
<0xC4>	0
<0xC5>	0
<0xC6>	0
<0xC7>	0
<0xC8>	0
<0xC9>	0
<0xCA>	0
<0xCB>	0
<0xCC>	0
<0xCD>	0
<0xCE>	0
<0xCF>	0
<0xD0>	0
<0xD1>	0
<0xD2>	0
<0xD3>	0
<0xD4>	0
<0xD5>	0
<0xD6>	0
<0xD7>	0
<0xD8>	0
<0xD9>	0
<0xDA>	0
<0xDB>	0
<0xDC>	0
<0xDD>	0
<0xDE>	0
<0xDF>	0
<0xE0>	0
<0xE1>	0
<0xE2>	0
<0xE3>	0
<0xE4>	0
<0xE5>	0
<0xE6>	0
<0xE7>	0
<0xE8>	0
<0xE9>	0
<0xEA>	0
<0xEB>	0
<0xEC>	0
<0xED>	0
<0xEE>	0
<0xEF>	0
<0xF0>	0
<0xF1>	0
<0xF2>	0
<0xF3>	0
<0xF4>	0
<0xF5>	0
<0xF6>	0
<0xF7>	0
<0xF8>	0
<0xF9>	0
<0xFA>	0
<0xFB>	0
<0xFC>	0
<0xFD>	0
<0xFE>	0
<0xFF>	0
▁t	-0
he	-1
▁a	-2
in	-3
▁the	-4
er	-5
on	-6
▁,	-7
re	-8
▁s	-9
ed	-10
▁w	-11
▁o	-12
nd	-13
at	-14
▁.	-15
or	-16
it	-17
▁c	-18
en	-19
▁f	-20
es	-21
is	-22
ar	-23
▁of	-24
an	-25
▁b	-26
▁in	-27
al	-28
ing	-29
▁p	-30
as	-31
▁and	-32
▁to	-33
ro	-34
ic	-35
▁m	-36
▁d	-37
▁h	-38
ion	-39
ou	-40
le	-41
▁T	-42
▁re	-43
▁=	-44
▁A	-45
▁S	-46
il	-47
ent	-48
▁"	-49
▁th	-50
st	-51
▁C	-52
▁l	-53
el	-54
om	-55
am	-56
▁e	-57
▁n	-58
▁@	-59
ad	-60
ac	-61
▁M	-62
▁was	-63
ur	-64
▁The	-65
ec	-66
▁on	-67
ly	-68
▁B	-69
▁I	-70
et	-71
▁'	-72
ol	-73
▁g	-74
id	-75
iv	-76
im	-77
▁for	-78
ir	-79
ig	-80
-@	-81
▁@-@	-82
ter	-83
ot	-84
▁H	-85
▁as	-86
us	-87
ow	-88
ut	-89
▁st	-90
ay	-91
ith	-92
▁P	-93
ation	-94
ver	-95
▁be	-96
▁with	-97
▁he	-98
▁that	-99
▁R	-100
em	-101
th	-102
▁D	-103
un	-104
ce	-105
▁F	-106
▁is	-107
ul	-108
▁wh	-109
▁by	-110
ch	-111
▁)	-112
▁(	-113
▁al	-114
▁con	-115
▁N	-116
▁W	-117
ra	-118
▁at	-119
▁L	-120
os	-121
▁G	-122
ers	-123
ct	-124
▁it	-125
rom	-126
and	-127
▁J	-128
▁an	-129
her	-130
est	-131
um	-132
ag	-133
ist	-134
ain	-135
av	-136
ri	-137
od	-138
▁E	-139
▁O	-140
▁from	-141
▁com	-142
▁his	-143
op	-144
res	-145
if	-146
ere	-147
ort	-148
▁pro	-149
ies	-150
▁v	-151
ill	-152
▁de	-153
pp	-154
ore	-155
ld	-156
▁r	-157
▁were	-158
▁su	-159
▁In	-160
▁se	-161
ong	-162
igh	-163
ew	-164
ate	-165
all	-166
ak	-167
ard	-168
ich	-169
art	-170
ber	-171
ant	-172
▁or	-173
ity	-174
ud	-175
oc	-176
ated	-177
ab	-178
▁K	-179
▁ch	-180
gh	-181
▁ex	-182
qu	-183
pt	-184
▁pl	-185
rou	-186
ess	-187
ear	-188
▁U	-189
ame	-190
ive	-191
ack	-192
▁sh	-193
▁k	-194
▁are	-195
ect	-196
▁had	-197
ian	-198
▁St	-199
se	-200
▁which	-201
ast	-202
red	-203
ge	-204
our	-205
ov	-206
ip	-207
ment	-208
▁sp	-209
▁not	-210
▁y	-211
▁le	-212
ial	-213
ine	-214
rit	-215
ost	-216
ap	-217
ust	-218
ight	-219
ell	-220
▁Ch	-221
ord	-222
▁u	-223
oun	-224
ia	-225
ical	-226
ther	-227
ish	-228
ary	-229
ave	-230
og	-231
▁un	-232
cl	-233
irst	-234
▁V	-235
ous	-236
ions	-237
▁;	-238
▁ar	-239
▁int	-240
ru	-241
ide	-242
so	-243
▁comp	-244
fter	-245
▁but	-246
▁their	-247
▁cont	-248
cc	-249
ure	-250
out	-251
ould	-252
▁its	-253
▁whe	-254
▁first	-255
wo	-256
per	-257
ff	-258
hed	-259
▁–	-260
own	-261
ass	-262
ign	-263
▁also	-264
ue	-265
ry	-266
orm	-267
▁cl	-268
ok	-269
ub	-270
▁He	-271
ie	-272
ater	-273
ran	-274
ome	-275
▁res	-276
ire	-277
▁:	-278
ond	-279
ork	-280
end	-281
▁ad	-282
▁ab	-283
mer	-284
▁us	-285
age	-286
▁her	-287
▁ro	-288
▁have	-289
low	-290
▁one	-291
▁per	-292
▁rec	-293
▁been	-294
▁has	-295
▁two	-296
.@	-297
▁@.@	-298
ime	-299
▁Th	-300
ree	-301
uring	-302
du	-303
ally	-304
ence	-305
pl	-306
ile	-307
ult	-308
▁sc	-309
land	-310
ough	-311
ition	-312
iz	-313
▁ag	-314
▁who	-315
▁this	-316
ach	-317
ations	-318
▁dis	-319
▁Al	-320
ric	-321
▁bec	-322
▁It	-323
▁app	-324
▁j	-325
▁part	-326
ount	-327
are	-328
▁des	-329
clud	-330
act	-331
ely	-332
ade	-333
ory	-334
▁they	-335
▁over	-336
▁play	-337
over	-338
ib	-339
ound	-340
▁man	-341
▁after	-342
▁year	-343
ens	-344
,@	-345
▁@,@	-346
ik	-347
▁off	-348
▁ser	-349
▁att	-350
▁im	-351
ction	-352
▁other	-353
▁Y	-354
urn	-355
ph	-356
ember	-357
ace	-358
▁includ	-359
ance	-360
ress	-361
ite	-362
▁out	-363
ice	-364
te	-365
▁en	-366
ark	-367
ang	-368
man	-369
ey	-370
round	-371
wn	-372
▁into	-373
rough	-374
▁up	-375
▁pre	-376
nder	-377
▁ev	-378
ren	-379
▁time	-380
int	-381
we	-382
▁On	-383
ced	-384
port	-385
▁comm	-386
ward	-387
ind	-388
ces	-389
amp	-390
▁te	-391
ied	-392
▁Un	-393
▁would	-394
vel	-395
ose	-396
▁we	-397
▁more	-398
tern	-399
ited	-400
▁all	-401
ents	-402
▁An	-403
les	-404
▁him	-405
ason	-406
▁ne	-407
able	-408
iss	-409
rib	-410
ors	-411
ings	-412
oy	-413
ased	-414
▁she	-415
aw	-416
ates	-417
rop	-418
ood	-419
att	-420
▁cent	-421
ase	-422
one	-423
▁work	-424
▁po	-425
ral	-426
ious	-427
old	-428
orth	-429
ix	-430
ict	-431
gan	-432
ild	-433
▁rem	-434
inal	-435
▁sec	-436
ep	-437
ail	-438
▁fe	-439
form	-440
▁ear	-441
▁during	-442
ath	-443
▁bet	-444
▁them	-445
ered	-446
▁when	-447
▁cons	-448
ilm	-449
outh	-450
ved	-451
ron	-452
▁kn	-453
▁As	-454
aus	-455
fer	-456
▁most	-457
ubl	-458
▁dec	-459
ft	-460
ick	-461
▁only	-462
▁song	-463
way	-464
▁again	-465
ake	-466
▁Se	-467
ollow	-468
▁new	-469
ug	-470
ters	-471
▁Mar	-472
▁Com	-473
oth	-474
reat	-475
ween	-476
ational	-477
ons	-478
▁Ar	-479
hip	-480
▁three	-481
▁tr	-482
▁under	-483
▁game	-484
ook	-485
ision	-486
▁about	-487
ock	-488
▁fl	-489
▁rel	-490
ob	-491
olog	-492
▁col	-493
als	-494
▁than	-495
▁season	-496
▁pos	-497
▁between	-498
ve	-499
▁film	-500
meric	-501
▁through	-502
fore	-503
▁end	-504
▁can	-505
▁Americ	-506
▁me	-507
▁num	-508
orn	-509
▁En	-510
▁New	-511
iew	-512
▁later	-513
▁def	-514
▁ret	-515
▁ass	-516
ted	-517
▁while	-518
ular	-519
ans	-520
▁char	-521
▁act	-522
▁sub	-523
hn	-524
▁ver	-525
▁record	-526
ts	-527
▁produ	-528
▁ra	-529
▁pe	-530
▁pr	-531
▁reg	-532
▁where	-533
▁made	-534
ames	-535
orld	-536
▁form	-537
ating	-538
▁bu	-539
▁ac	-540
▁lar	-541
▁mov	-542
▁rele	-543
▁inter	-544
ener	-545
ever	-546
hes	-547
ury	-548
ished	-549
ines	-550
▁some	-551
▁follow	-552
▁so	-553
▁writ	-554
ros	-555
▁co	-556
▁qu	-557
▁day	-558
▁spec	-559
▁inc	-560
▁At	-561
▁four	-562
▁am	-563
ived	-564
▁Le	-565
ual	-566
▁second	-567
▁Re	-568
▁acc	-569
▁used	-570
ins	-571
lect	-572
▁ind	-573
ning	-574
ike	-575
▁before	-576
ank	-577
bum	-578
aid	-579
iel	-580
▁supp	-581
ific	-582
▁such	-583
▁mon	-584
rans	-585
▁mus	-586
▁This	-587
ll	-588
ics	-589
ily	-590
hen	-591
▁high	-592
iver	-593
▁Sh	-594
▁Brit	-595
▁call	-596
▁being	-597
any	-598
▁there	-599
▁publ	-600
aj	-601
io	-602
▁ent	-603
ars	-604
▁Sc	-605
▁Jo	-606
owever	-607
▁sy	-608
▁sur	-609
▁do	-610
▁Aust	-611
▁years	-612
▁number	-613
▁found	-614
▁ep	-615
▁loc	-616
▁album	-617
▁tra	-618
▁sever	-619
velop	-620
▁against	-621
▁no	-622
ton	-623
ek	-624
▁set	-625
▁—	-626
ife	-627
▁inv	-628
ince	-629
ised	-630
other	-631
▁bl	-632
ject	-633
uc	-634
ier	-635
▁Z	-636
ement	-637
▁em	-638
ten	-639
ird	-640
▁Eng	-641
▁/	-642
▁both	-643
ities	-644
▁pres	-645
▁including	-646
▁back	-647
▁series	-648
ained	-649
ause	-650
▁then	-651
▁became	-652
its	-653
ane	-654
irect	-655
▁well	-656
yl	-657
pr	-658
ode	-659
ram	-660
ise	-661
▁known	-662
urch	-663
▁trans	-664
▁perform	-665
▁team	-666
▁add	-667
ident	-668
ale	-669
son	-670
▁exp	-671
▁United	-672
▁dep	-673
ures	-674
ann	-675
az	-676
ert	-677
▁epis	-678
ined	-679
▁main	-680
row	-681
ful	-682
▁pop	-683
▁rece	-684
ield	-685
▁met	-686
though	-687
overn	-688
ower	-689
▁sing	-690
iet	-691
uch	-692
▁many	-693
air	-694
ross	-695
▁After	-696
▁charac	-697
▁long	-698
▁Ind	-699
▁several	-700
▁desc	-701
ather	-702
ober	-703
▁rep	-704
▁contin	-705
▁est	-706
▁develop	-707
▁op	-708
ool	-709
▁Austral	-710
▁American	-711
▁mill	-712
up	-713
ivers	-714
▁go	-715
ute	-716
▁sm	-717
elf	-718
ern	-719
▁orig	-720
led	-721
▁city	-722
▁began	-723
ative	-724
ared	-725
▁show	-726
▁stud	-727
▁Ger	-728
▁min	-729
au	-730
▁cre	-731
une	-732
emb	-733
der	-734
roup	-735
▁War	-736
▁She	-737
▁British	-738
▁along	-739
ah	-740
▁May	-741
ven	-742
▁pol	-743
▁head	-744
▁comple	-745
apt	-746
▁century	-747
▁John	-748
ued	-749
▁did	-750
▁lead	-751
erm	-752
▁sign	-753
ired	-754
▁mil	-755
▁direct	-756
▁ship	-757
til	-758
▁art	-759
ually	-760
▁could	-761
ized	-762
▁ob	-763
▁ext	-764
▁down	-765
iam	-766
▁early	-767
ley	-768
▁hist	-769
view	-770
▁near	-771
▁car	-772
▁bel	-773
▁dif	-774
▁war	-775
▁oper	-776
▁Con	-777
▁inf	-778
▁Wh	-779
ient	-780
▁bro	-781
▁US	-782
els	-783
▁these	-784
▁mat	-785
▁called	-786
oot	-787
▁air	-788
▁Br	-789
▁imp	-790
▁may	-791
aking	-792
▁said	-793
▁run	-794
▁crit	-795
▁km	-796
▁Is	-797
ople	-798
ull	-799
ruct	-800
ccess	-801
▁feat	-802
▁episode	-803
▁design	-804
itt	-805
ured	-806
▁land	-807
▁inst	-808
▁resp	-809
▁disc	-810
ments	-811
▁Sp	-812
imes	-813
▁dist	-814
▁until	-815
▁return	-816
gest	-817
▁describ	-818
yp	-819
ists	-820
▁ins	-821
▁Cl	-822
▁start	-823
▁attack	-824
xt	-825
ajor	-826
▁prev	-827
oss	-828
ided	-829
▁any	-830
▁Bl	-831
▁fin	-832
▁Aug	-833
▁German	-834
▁August	-835
ink	-836
▁area	-837
amed	-838
ains	-839
erson	-840
ially	-841
▁Sept	-842
my	-843
erv	-844
▁prov	-845
enn	-846
ible	-847
ism	-848
▁Col	-849
▁though	-850
▁gener	-851
▁September	-852
▁Car	-853
▁const	-854
▁pass	-855
▁govern	-856
▁north	-857
▁North	-858
ty	-859
▁offic	-860
ange	-861
▁They	-862
osed	-863
▁Comm	-864
▁own	-865
▁same	-866
▁Man	-867
▁group	-868
▁around	-869
ove	-870
▁open	-871
▁because	-872
▁support	-873
cept	-874
▁million	-875
▁released	-876
▁Pl	-877
ets	-878
▁eff	-879
▁use	-880
▁like	-881
ium	-882
▁six	-883
▁small	-884
ash	-885
▁occ	-886
▁success	-887
▁final	-888
chool	-889
▁count	-890
▁adv	-891
▁Ju	-892
▁batt	-893
▁music	-894
▁appear	-895
▁gu	-896
aced	-897
▁sim	-898
▁people	-899
ues	-900
stem	-901
▁World	-902
▁fam	-903
▁Chr	-904
▁following	-905
wards	-906
ivision	-907
▁De	-908
▁br	-909
▁conc	-910
▁dam	-911
ouse	-912
▁mod	-913
uth	-914
▁ph	-915
▁All	-916
▁win	-917
▁However	-918
ina	-919
ke	-920
ilt	-921
und	-922
ians	-923
▁consid	-924
▁large	-925
▁each	-926
▁June	-927
▁Ad	-928
oman	-929
▁result	-930
ck	-931
ology	-932
ution	-933
▁For	-934
ats	-935
ole	-936
▁ed	-937
ropical	-938
▁ele	-939
ives	-940
▁South	-941
▁ann	-942
▁five	-943
▁%	-944
▁point	-945
▁report	-946
▁contro	-947
▁character	-948
▁Me	-949
ged	-950
▁life	-951
▁str	-952
▁south	-953
▁Jan	-954
▁var	-955
raph	-956
▁Pro	-957
ery	-958
▁Be	-959
▁gun	-960
ording	-961
eb	-962
ales	-963
ended	-964
▁ever	-965
ony	-966
ately	-967
▁gr	-968
▁prom	-969
▁since	-970
ural	-971
ax	-972
▁Gu	-973
▁Oct	-974
▁Q	-975
med	-976
ble	-977
ically	-978
avy	-979
▁States	-980
ox	-981
aving	-982
ling	-983
▁week	-984
ored	-985
uary	-986
▁state	-987
▁$	-988
▁Fran	-989
▁major	-990
ont	-991
▁took	-992
▁October	-993
ified	-994
▁Nov	-995
ting	-996
ys	-997
ection	-998
▁Eu	-999
ected	-1000
▁will	-1001
empt	-1002
▁II	-1003
iving	-1004
▁received	-1005
lish	-1006
ball	-1007
▁partic	-1008
▁public	-1009
ility	-1010
▁July	-1011
raft	-1012
▁class	-1013
ae	-1014
▁rest	-1015
ission	-1016
ague	-1017
▁care	-1018
▁tit	-1019
▁played	-1020
▁line	-1021
▁hel	-1022
▁Dec	-1023
▁what	-1024
▁book	-1025
▁det	-1026
▁Her	-1027
ional	-1028
▁system	-1029
ple	-1030
by	-1031
▁name	-1032
ops	-1033
ants	-1034
▁now	-1035
▁last	-1036
▁prot	-1037
▁port	-1038
▁build	-1039
▁January	-1040
▁[	-1041
▁]	-1042
▁incre	-1043
aim	-1044
▁Can	-1045
esp	-1046
▁storm	-1047
▁Christ	-1048
omet	-1049
▁serv	-1050
▁ref	-1051
ively	-1052
▁Mc	-1053
hel	-1054
▁late	-1055
▁included	-1056
▁Ph	-1057
▁conf	-1058
▁due	-1059
ages	-1060
▁mar	-1061
▁tri	-1062
▁York	-1063
▁described	-1064
ret	-1065
dom	-1066
▁During	-1067
aur	-1068
▁won	-1069
▁King	-1070
anc	-1071
▁just	-1072
ham	-1073
▁much	-1074
app	-1075
▁single	-1076
apan	-1077
pril	-1078
▁April	-1079
▁government	-1080
gin	-1081
▁allow	-1082
ner	-1083
ody	-1084
..	-1085
▁sl	-1086
iod	-1087
ideo	-1088
▁Japan	-1089
▁world	-1090
get	-1091
▁death	-1092
oad	-1093
▁appro	-1094
sion	-1095
▁attempt	-1096
ital	-1097
▁command	-1098
▁November	-1099
▁kill	-1100
rote	-1101
▁another	-1102
▁left	-1103
itions	-1104
▁camp	-1105
▁men	-1106
▁...	-1107
ently	-1108
▁although	-1109
ai	-1110
▁poss	-1111
▁short	-1112
▁within	-1113
ger	-1114
▁Par	-1115
▁old	-1116
ech	-1117
orp	-1118
▁named	-1119
▁Europ	-1120
▁wrote	-1121
ene	-1122
▁Mus	-1123
▁even	-1124
▁built	-1125
urther	-1126
▁organ	-1127
rand	-1128
ched	-1129
omin	-1130
▁top	-1131
ption	-1132
▁turn	-1133
ract	-1134
▁based	-1135
idge	-1136
▁track	-1137
ays	-1138
▁place	-1139
▁March	-1140
itary	-1141
▁Batt	-1142
rench	-1143
▁prog	-1144
▁child	-1145
▁Ge	-1146
▁power	-1147
▁third	-1148
▁December	-1149
▁previous	-1150
ness	-1151
▁event	-1152
▁par	-1153
▁star	-1154
▁species	-1155
ulation	-1156
▁National	-1157
▁if	-1158
▁cap	-1159
▁estab	-1160
▁vis	-1161
▁differ	-1162
ards	-1163
ipp	-1164
▁school	-1165
ached	-1166
▁belie	-1167
▁By	-1168
▁very	-1169
▁And	-1170
ung	-1171
▁bre	-1172
ilar	-1173
▁home	-1174
▁person	-1175
▁dr	-1176
osp	-1177
▁expl	-1178
▁period	-1179
ler	-1180
▁water	-1181
ances	-1182
▁list	-1183
▁requ	-1184
▁There	-1185
▁games	-1186
▁hal	-1187
ms	-1188
▁tem	-1189
amb	-1190
ves	-1191
▁hand	-1192
▁review	-1193
iversity	-1194
que	-1195
▁eng	-1196
▁City	-1197
▁River	-1198
▁French	-1199
ison	-1200
oint	-1201
eder	-1202
▁best	-1203
▁sent	-1204
aged	-1205
▁repl	-1206
▁those	-1207
iven	-1208
ides	-1209
▁hum	-1210
▁Europe	-1211
▁wind	-1212
▁month	-1213
ese	-1214
ense	-1215
▁His	-1216
▁When	-1217
oci	-1218
▁England	-1219
▁med	-1220
side	-1221
▁dest	-1222
ruction	-1223
hest	-1224
▁led	-1225
ature	-1226
▁No	-1227
elt	-1228
▁cour	-1229
▁bo	-1230
▁great	-1231
▁capt	-1232
aken	-1233
ences	-1234
let	-1235
▁Fl	-1236
▁family	-1237
aster	-1238
▁bas	-1239
ience	-1240
▁Ste	-1241
▁make	-1242
mp	-1243
▁video	-1244
▁original	-1245
▁opp	-1246
▁next	-1247
▁came	-1248
inc	-1249
akes	-1250
▁dem	-1251
▁typ	-1252
urric	-1253
▁Comp	-1254
ention	-1255
▁still	-1256
▁mark	-1257
▁side	-1258
▁term	-1259
▁moved	-1260
▁role	-1261
▁leg	-1262
▁continued	-1263
ented	-1264
▁story	-1265
▁Or	-1266
alk	-1267
▁few	-1268
▁local	-1269
▁way	-1270
▁caus	-1271
▁sold	-1272
▁Division	-1273
▁west	-1274
▁history	-1275
ott	-1276
▁mid	-1277
▁Church	-1278
gy	-1279
atter	-1280
ior	-1281
▁Te	-1282
▁view	-1283
line	-1284
bs	-1285
oon	-1286
▁held	-1287
rew	-1288
uted	-1289
aining	-1290
▁forces	-1291
ival	-1292
embers	-1293
▁sug	-1294
▁Pr	-1295
▁iss	-1296
▁auth	-1297
▁former	-1298
▁addition	-1299
read	-1300
▁road	-1301
uss	-1302
▁Am	-1303
riend	-1304
lev	-1305
▁Bro	-1306
eng	-1307
lu	-1308
▁ant	-1309
▁cover	-1310
▁often	-1311
ne	-1312
▁Char	-1313
sh	-1314
▁east	-1315
astern	-1316
ograph	-1317
▁further	-1318
▁considered	-1319
▁career	-1320
▁effect	-1321
▁Ed	-1322
▁We	-1323
▁stand	-1324
arn	-1325
ining	-1326
▁town	-1327
▁Will	-1328
▁claim	-1329
▁right	-1330
▁cr	-1331
ront	-1332
▁deb	-1333
▁init	-1334
ampions	-1335
ches	-1336
eter	-1337
▁tot	-1338
▁One	-1339
▁position	-1340
self	-1341
ories	-1342
▁exper	-1343
▁del	-1344
▁arch	-1345
▁nort	-1346
▁State	-1347
▁match	-1348
▁military	-1349
▁With	-1350
enc	-1351
▁Ab	-1352
▁dra	-1353
▁half	-1354
▁Acc	-1355
▁help	-1356
▁similar	-1357
▁suggest	-1358
▁tropical	-1359
ternational	-1360
par	-1361
roy	-1362
▁strong	-1363
▁defe	-1364
▁conv	-1365
▁fire	-1366
ister	-1367
▁band	-1368
▁Rec	-1369
▁Count	-1370
▁import	-1371
▁player	-1372
▁refer	-1373
▁Gener	-1374
▁without	-1375
▁cur	-1376
▁real	-1377
▁polit	-1378
alion	-1379
▁days	-1380
▁trad	-1381
urricane	-1382
▁plan	-1383
▁commun	-1384
estern	-1385
▁members	-1386
▁Tr	-1387
▁take	-1388
ebru	-1389
▁spe	-1390
▁X	-1391
ead	-1392
▁my	-1393
▁tw	-1394
ried	-1395
▁club	-1396
▁company	-1397
▁Per	-1398
iment	-1399
▁common	-1400
▁av	-1401
▁among	-1402
ensive	-1403
▁level	-1404
▁different	-1405
ones	-1406
▁you	-1407
▁every	-1408
▁post	-1409
▁recorded	-1410
▁prop	-1411
ots	-1412
▁el	-1413
itar	-1414
▁Ear	-1415
▁Febru	-1416
▁however	-1417
▁Although	-1418
▁February	-1419
augh	-1420
▁beh	-1421
▁elect	-1422
▁invol	-1423
▁fore	-1424
▁Australian	-1425
iter	-1426
▁Port	-1427
▁repres	-1428
eal	-1429
▁English	-1430
▁arr	-1431
yn	-1432
arr	-1433
▁published	-1434
▁Af	-1435
ize	-1436
▁low	-1437
ression	-1438
reen	-1439
yle	-1440
hern	-1441
▁According	-1442
▁find	-1443
▁ships	-1444
▁order	-1445
lear	-1446
▁written	-1447
ering	-1448
ittle	-1449
outher	-1450
▁mag	-1451
atic	-1452
▁tro	-1453
be	-1454
▁vict	-1455
▁total	-1456
isc	-1457
ices	-1458
ploy	-1459
rodu	-1460
▁fre	-1461
▁pat	-1462
outhern	-1463
▁origin	-1464
▁release	-1465
▁Su	-1466
▁Australia	-1467
▁field	-1468
▁particular	-1469
▁songs	-1470
▁title	-1471
▁become	-1472
▁Air	-1473
▁foot	-1474
▁compet	-1475
▁er	-1476
▁Ang	-1477
ising	-1478
▁Park	-1479
▁General	-1480
▁control	-1481
▁reported	-1482
rick	-1483
▁Mich	-1484
▁lost	-1485
▁ord	-1486
▁prof	-1487
▁project	-1488
ush	-1489
reet	-1490
▁comb	-1491
▁Canad	-1492
aces	-1493
sequ	-1494
▁surv	-1495
▁times	-1496
▁having	-1497
▁ft	-1498
▁gave	-1499
▁ter	-1500
aying	-1501
▁Cent	-1502
▁produced	-1503
▁stat	-1504
▁League	-1505
▁version	-1506
urs	-1507
▁cy	-1508
▁sk	-1509
esc	-1510
▁El	-1511
ampionship	-1512
▁Ass	-1513
rest	-1514
▁West	-1515
▁University	-1516
▁!	-1517
rent	-1518
▁equ	-1519
iety	-1520
▁Bar	-1521
▁Min	-1522
▁light	-1523
▁production	-1524
oung	-1525
▁signific	-1526
▁less	-1527
▁chang	-1528
▁author	-1529
iron	-1530
▁Geor	-1531
ably	-1532
ours	-1533
ream	-1534
▁Reg	-1535
ailed	-1536
levision	-1537
▁histor	-1538
ges	-1539
▁jo	-1540
▁These	-1541
▁influ	-1542
▁never	-1543
▁Rich	-1544
ille	-1545
▁country	-1546
quad	-1547
ald	-1548
▁arm	-1549
▁Roman	-1550
▁given	-1551
▁aff	-1552
▁site	-1553
▁force	-1554
▁making	-1555
▁&	-1556
▁want	-1557
used	-1558
▁include	-1559
▁returned	-1560
echn	-1561
▁Afric	-1562
▁popular	-1563
aul	-1564
work	-1565
▁sol	-1566
▁ground	-1567
na	-1568
▁obs	-1569
ither	-1570
vers	-1571
▁Miss	-1572
▁eight	-1573
▁press	-1574
oard	-1575
▁sit	-1576
▁Road	-1577
▁destroy	-1578
ades	-1579
ivil	-1580
antry	-1581
▁critic	-1582
▁island	-1583
ator	-1584
▁Les	-1585
▁night	-1586
ization	-1587
▁across	-1588
▁stated	-1589
▁Pol	-1590
ask	-1591
ination	-1592
▁struct	-1593
me	-1594
▁church	-1595
▁William	-1596
▁reached	-1597
▁far	-1598
▁developed	-1599
▁seen	-1600
ffic	-1601
ring	-1602
ape	-1603
aun	-1604
fic	-1605
ford	-1606
▁While	-1607
▁America	-1608
▁Japanese	-1609
▁population	-1610
▁cult	-1611
aff	-1612
▁lim	-1613
▁miles	-1614
▁present	-1615
▁program	-1616
▁announ	-1617
reek	-1618
ration	-1619
▁Sim	-1620
▁Song	-1621
ius	-1622
▁fact	-1623
ument	-1624
▁cross	-1625
▁significant	-1626
sp	-1627
▁should	-1628
▁establ	-1629
▁earl	-1630
▁Jack	-1631
omb	-1632
oyal	-1633
▁using	-1634
▁children	-1635
cess	-1636
omen	-1637
▁read	-1638
▁nov	-1639
iness	-1640
▁away	-1641
▁Lond	-1642
ground	-1643
▁rad	-1644
▁guns	-1645
▁friend	-1646
aign	-1647
▁Old	-1648
ological	-1649
reg	-1650
▁div	-1651
▁County	-1652
▁himself	-1653
▁how	-1654
▁manag	-1655
▁pit	-1656
craft	-1657
alth	-1658
▁Dav	-1659
▁Mount	-1660
▁London	-1661
▁development	-1662
▁established	-1663
imately	-1664
▁modern	-1665
▁body	-1666
▁battle	-1667
▁mm	-1668
▁formed	-1669
▁thought	-1670
▁bar	-1671
▁pra	-1672
eared	-1673
▁sound	-1674
▁performance	-1675
ope	-1676
igade	-1677
isted	-1678
▁hig	-1679
▁cast	-1680
▁gen	-1681
▁throughout	-1682
aren	-1683
iers	-1684
▁felt	-1685
▁pain	-1686
▁went	-1687
▁areas	-1688
arch	-1689
most	-1690
▁cat	-1691
rie	-1692
▁Im	-1693
▁killed	-1694
▁wat	-1695
▁High	-1696
▁tour	-1697
▁Scient	-1698
ero	-1699
utes	-1700
▁law	-1701
▁prim	-1702
▁Black	-1703
▁Ne	-1704
▁good	-1705
▁fight	-1706
▁somet	-1707
▁successful	-1708
ylan	-1709
▁Cal	-1710
▁introdu	-1711
iec	-1712
▁gl	-1713
▁died	-1714
ements	-1715
▁seven	-1716
ords	-1717
▁Dylan	-1718
▁noted	-1719
acy	-1720
oll	-1721
ript	-1722
▁cou	-1723
ublic	-1724
▁range	-1725
field	-1726
itive	-1727
▁discover	-1728
▁ste	-1729
▁too	-1730
▁full	-1731
▁important	-1732
af	-1733
irc	-1734
▁adm	-1735
▁soc	-1736
▁mount	-1737
▁located	-1738
▁Ex	-1739
▁ten	-1740
▁Army	-1741
▁black	-1742
▁front	-1743
▁started	-1744
▁put	-1745
▁decl	-1746
▁building	-1747
ief	-1748
▁Ev	-1749
▁need	-1750
▁Ha	-1751
▁Phil	-1752
▁chart	-1753
▁ide	-1754
▁human	-1755
ico	-1756
▁Gl	-1757
▁activ	-1758
▁various	-1759
▁performed	-1760
epend	-1761
▁Company	-1762
eth	-1763
osaur	-1764
▁remained	-1765
▁writing	-1766
▁cas	-1767
▁feet	-1768
▁look	-1769
▁television	-1770
fall	-1771
▁see	-1772
▁troops	-1773
▁Ol	-1774
ways	-1775
▁official	-1776
con	-1777
▁Ire	-1778
▁fem	-1779
▁Feder	-1780
▁caused	-1781
▁father	-1782
▁fun	-1783
itted	-1784
▁poem	-1785
▁Ireland	-1786
▁national	-1787
com	-1788
ogn	-1789
▁wid	-1790
▁white	-1791
▁house	-1792
▁To	-1793
ries	-1794
▁James	-1795
▁heavy	-1796
▁techn	-1797
▁interest	-1798
▁Har	-1799
▁Sec	-1800
idence	-1801
▁construction	-1802
▁age	-1803
▁red	-1804
▁sum	-1805
ara	-1806
hem	-1807
▁get	-1808
uck	-1809
▁Mon	-1810
iting	-1811
▁Hist	-1812
▁players	-1813
gr	-1814
ump	-1815
▁Pal	-1816
▁stri	-1817
▁style	-1818
ael	-1819
▁entire	-1820
▁ke	-1821
▁sw	-1822
idd	-1823
ino	-1824
▁Ke	-1825
▁does	-1826
▁sett	-1827
▁events	-1828
▁Island	-1829
ourn	-1830
▁Rober	-1831
▁mix	-1832
▁rev	-1833
▁able	-1834
▁vill	-1835
▁begin	-1836
▁relig	-1837
quadron	-1838
ressed	-1839
▁coast	-1840
▁peak	-1841
▁served	-1842
asing	-1843
▁campaign	-1844
▁But	-1845
▁fav	-1846
▁political	-1847
▁You	-1848
▁lik	-1849
enced	-1850
lected	-1851
▁region	-1852
▁created	-1853
▁Co	-1854
ened	-1855
▁tre	-1856
mar	-1857
leet	-1858
▁god	-1859
▁once	-1860
ids	-1861
por	-1862
duct	-1863
enth	-1864
▁Mag	-1865
▁fig	-1866
▁Care	-1867
▁followed	-1868
▁Battalion	-1869
antic	-1870
▁Atl	-1871
▁others	-1872
▁promot	-1873
▁pri	-1874
▁agre	-1875
▁works	-1876
▁’	-1877
abor	-1878
ster	-1879
▁son	-1880
▁estim	-1881
▁route	-1882
less	-1883
ficult	-1884
▁completed	-1885
▁cond	-1886
elling	-1887
▁announced	-1888
▁Cro	-1889
here	-1890
▁becom	-1891
day	-1892
▁Sy	-1893
▁meet	-1894
▁rank	-1895
▁least	-1896
▁difficult	-1897
▁Du	-1898
▁coun	-1899
▁hold	-1900
▁added	-1901
rab	-1902
ivid	-1903
▁ball	-1904
▁originally	-1905
▁val	-1906
ample	-1907
rought	-1908
ana	-1909
▁Sw	-1910
ique	-1911
play	-1912
rict	-1913
ought	-1914
▁occur	-1915
▁relations	-1916
▁characters	-1917
▁bus	-1918
▁fac	-1919
▁appeared	-1920
▁rock	-1921
▁months	-1922
▁Ham	-1923
▁cert	-1924
▁special	-1925
br	-1926
urb	-1927
▁ident	-1928
ki	-1929
rap	-1930
▁colle	-1931
▁southern	-1932
ects	-1933
ament	-1934
▁loss	-1935
▁pred	-1936
▁round	-1937
odes	-1938
▁base	-1939
▁associ	-1940
▁little	-1941
▁comment	-1942
cher	-1943
▁Mer	-1944
▁conn	-1945
▁Other	-1946
▁Royal	-1947
▁super	-1948
▁process	-1949
▁broad	-1950
▁mi	-1951
▁Act	-1952
▁Som	-1953
▁damage	-1954
▁instead	-1955
emy	-1956
▁born	-1957
ality	-1958
▁tradition	-1959
▁aircraft	-1960
aly	-1961
cer	-1962
ett	-1963
▁Kingdom	-1964
pped	-1965
ying	-1966
▁Rout	-1967
▁features	-1968
unk	-1969
orse	-1970
▁aud	-1971
▁Town	-1972
▁cycl	-1973
▁behind	-1974
▁decided	-1975
oice	-1976
▁enc	-1977
▁lack	-1978
ency	-1979
▁accom	-1980
cil	-1981
▁know	-1982
▁eastern	-1983
▁service	-1984
▁Rep	-1985
▁let	-1986
▁redu	-1987
▁Two	-1988
▁grow	-1989
▁novel	-1990
oo	-1991
▁Mad	-1992
▁San	-1993
umb	-1994
▁non	-1995
▁vol	-1996
igned	-1997
▁suff	-1998
▁highway	-1999
ray	-2000
▁award	-2001
▁river	-2002
▁critics	-2003
heast	-2004
▁East	-2005
▁circ	-2006
▁saw	-2007
▁Scientology	-2008
▁Mex	-2009
▁Route	-2010
▁taken	-2011
▁operations	-2012
▁fif	-2013
▁mass	-2014
▁Bra	-2015
▁McC	-2016
▁Mor	-2017
▁recogn	-2018
angu	-2019
ming	-2020
▁wife	-2021
▁close	-2022
▁fourth	-2023
▁towards	-2024
ned	-2025
ault	-2026
▁Bill	-2027
▁Some	-2028
▁aver	-2029
▁action	-2030
gg	-2031
▁voc	-2032
oph	-2033
▁Pres	-2034
▁anim	-2035
▁Street	-2036
▁either	-2037
▁Championship	-2038
off	-2039
▁eventually	-2040
ata	-2041
ecut	-2042
ators	-2043
istic	-2044
▁test	-2045
aching	-2046
▁David	-2047
▁clos	-2048
▁Ser	-2049
▁reb	-2050
▁France	-2051
▁represent	-2052
urg	-2053
illa	-2054
▁separ	-2055
olution	-2056
▁scored	-2057
▁appoint	-2058
▁subsequ	-2059
▁hurricane	-2060
alt	-2061
▁live	-2062
▁impro	-2063
▁z	-2064
ica	-2065
cast	-2066
▁coll	-2067
▁fort	-2068
▁almost	-2069
▁mother	-2070
▁proble	-2071
▁bird	-2072
▁Wales	-2073
▁individ	-2074
▁profess	-2075
iff	-2076
azine	-2077
▁stage	-2078
▁northern	-2079
ude	-2080
▁Music	-2081
▁stars	-2082
▁young	-2083
▁commer	-2084
▁cut	-2085
▁sex	-2086
▁miss	-2087
▁ce	-2088
▁fall	-2089
▁Follow	-2090
▁Em	-2091
aval	-2092
iber	-2093
▁ask	-2094
▁ren	-2095
▁wall	-2096
▁Indian	-2097
▁central	-2098
▁featured	-2099
aper	-2100
▁cor	-2101
▁laun	-2102
▁Bo	-2103
▁NY	-2104
▁Cup	-2105
▁Hill	-2106
▁crew	-2107
ography	-2108
ceed	-2109
ores	-2110
▁dou	-2111
▁Grand	-2112
medi	-2113
orts	-2114
▁hon	-2115
▁units	-2116
▁Inf	-2117
▁Rock	-2118
▁example	-2119
iol	-2120
ota	-2121
▁rul	-2122
▁host	-2123
▁move	-2124
▁accept	-2125
▁playing	-2126
stit	-2127
ston	-2128
ully	-2129
▁arg	-2130
▁women	-2131
▁general	-2132
▁respons	-2133
▁believed	-2134
▁Following	-2135
▁Ag	-2136
west	-2137
▁goal	-2138
ending	-2139
ama	-2140
chie	-2141
emor	-2142
▁iron	-2143
▁brought	-2144
▁mot	-2145
▁king	-2146
lement	-2147
▁Carey	-2148
▁Robert	-2149
aves	-2150
▁case	-2151
gether	-2152
▁together	-2153
▁International	-2154
men	-2155
▁God	-2156
▁exc	-2157
arter	-2158
uation	-2159
▁mater	-2160
▁winds	-2161
aut	-2162
▁Sl	-2163
▁Ber	-2164
eum	-2165
cial	-2166
▁dev	-2167
▁nuc	-2168
▁placed	-2169
▁largest	-2170
▁directed	-2171
▁relationship	-2172
reng	-2173
▁Med	-2174
▁mph	-2175
▁Part	-2176
▁stru	-2177
▁leading	-2178
▁finished	-2179
wood	-2180
▁insp	-2181
▁upon	-2182
iation	-2183
▁court	-2184
▁langu	-2185
▁intens	-2186
▁Jew	-2187
▁sour	-2188
▁indust	-2189
▁member	-2190
▁contract	-2191
▁provided	-2192
co	-2193
board	-2194
▁Paul	-2195
ential	-2196
▁weeks	-2197
▁rather	-2198
▁Brigade	-2199
head	-2200
▁shot	-2201
▁flood	-2202
▁current	-2203
ving	-2204
▁From	-2205
▁opened	-2206
▁Day	-2207
oring	-2208
▁Game	-2209
▁sequ	-2210
▁employ	-2211
uel	-2212
▁Pe	-2213
▁hy	-2214
ville	-2215
▁Thom	-2216
▁creat	-2217
artment	-2218
val	-2219
icated	-2220
ishing	-2221
▁appearance	-2222
▁ey	-2223
bert	-2224
ights	-2225
▁civil	-2226
▁ve	-2227
cing	-2228
▁prob	-2229
▁invest	-2230
▁Command	-2231
▁opening	-2232
▁elements	-2233
go	-2234
▁-	-2235
ule	-2236
▁Hen	-2237
▁streng	-2238
AF	-2239
▁Pre	-2240
▁regular	-2241
ih	-2242
atin	-2243
asion	-2244
▁First	-2245
▁inform	-2246
▁points	-2247
▁earlier	-2248
▁designed	-2249
▁director	-2250
▁involved	-2251
ida	-2252
▁emb	-2253
iding	-2254
▁cell	-2255
▁cost	-2256
▁hours	-2257
▁yards	-2258
▁allowed	-2259
▁respect	-2260
▁generally	-2261
hing	-2262
▁meas	-2263
▁reve	-2264
iction	-2265
▁White	-2266
▁George	-2267
▁foc	-2268
▁conduct	-2269
▁European	-2270
▁saying	-2271
▁outside	-2272
▁possible	-2273
▁beg	-2274
erous	-2275
▁Navy	-2276
▁mean	-2277
▁quick	-2278
▁My	-2279
▁Sm	-2280
▁bi	-2281
▁Viet	-2282
▁burn	-2283
enes	-2284
▁engine	-2285
▁wanted	-2286
▁replaced	-2287
now	-2288
cent	-2289
▁gra	-2290
conom	-2291
▁Mark	-2292
ls	-2293
uk	-2294
aps	-2295
▁Dep	-2296
▁mer	-2297
ellow	-2298
▁react	-2299
nar	-2300
▁Ac	-2301
▁Best	-2302
▁desp	-2303
▁victory	-2304
eck	-2305
▁wood	-2306
ington	-2307
▁hom	-2308
▁exist	-2309
▁previously	-2310
tar	-2311
▁Cr	-2312
▁Rh	-2313
liam	-2314
ength	-2315
▁fund	-2316
▁working	-2317
▁estimated	-2318
▁particularly	-2319
▁above	-2320
▁joined	-2321
to	-2322
▁Qu	-2323
etwork	-2324
▁Angel	-2325
▁pract	-2326
▁metres	-2327
▁business	-2328
▁Christian	-2329
▁Ir	-2330
▁Pac	-2331
▁Red	-2332
▁esc	-2333
▁ill	-2334
▁Most	-2335
ze	-2336
inese	-2337
▁Desp	-2338
▁Kore	-2339
▁clear	-2340
▁neg	-2341
anned	-2342
▁Flor	-2343
▁Love	-2344
▁seem	-2345
▁travel	-2346
for	-2347
▁remov	-2348
osition	-2349
▁Chinese	-2350
ita	-2351
sel	-2352
ula	-2353
uter	-2354
▁hit	-2355
▁draw	-2356
▁achie	-2357
▁forced	-2358
▁Despite	-2359
ma	-2360
bor	-2361
pper	-2362
▁cop	-2363
▁diss	-2364
▁House	-2365
liament	-2366
▁ly	-2367
▁avail	-2368
▁worked	-2369
▁praised	-2370
▁transport	-2371
urt	-2372
▁Mo	-2373
▁Corp	-2374
▁mach	-2375
▁prote	-2376
onst	-2377
▁past	-2378
▁pers	-2379
▁withd	-2380
▁length	-2381
▁transfer	-2382
▁bur	-2383
▁inj	-2384
▁mult	-2385
▁poet	-2386
▁scene	-2387
aint	-2388
ecess	-2389
elled	-2390
rated	-2391
▁Zeal	-2392
▁study	-2393
▁reason	-2394
▁Zealand	-2395
itz	-2396
nel	-2397
▁La	-2398
▁fr	-2399
▁Mac	-2400
▁Val	-2401
osing	-2402
▁Play	-2403
▁free	-2404
▁rain	-2405
▁slow	-2406
atural	-2407
▁maint	-2408
▁threat	-2409
▁increased	-2410
ps	-2411
▁Kh	-2412
ties	-2413
▁Oper	-2414
▁condom	-2415
▁resear	-2416
▁Britain	-2417
▁ordered	-2418
ste	-2419
▁Battle	-2420
▁construct	-2421
ee	-2422
opp	-2423
▁think	-2424
▁Michael	-2425
▁station	-2426
▁material	-2427
mb	-2428
▁°	-2429
ago	-2430
▁Russ	-2431
▁Super	-2432
▁Lesnar	-2433
▁Mexico	-2434
▁object	-2435
▁regard	-2436
aker	-2437
▁Bay	-2438
▁Wal	-2439
▁Wil	-2440
▁Creek	-2441
▁Atlantic	-2442
▁evidence	-2443
rd	-2444
nes	-2445
▁Gal	-2446
acing	-2447
▁Later	-2448
ibility	-2449
▁account	-2450
▁football	-2451
▁rap	-2452
▁syn	-2453
▁trib	-2454
▁viol	-2455
▁Great	-2456
▁manager	-2457
▁remains	-2458
irth	-2459
▁Mary	-2460
▁poor	-2461
▁soon	-2462
▁whom	-2463
anding	-2464
▁nomin	-2465
▁Hall	-2466
▁hous	-2467
ania	-2468
▁Don	-2469
▁Tor	-2470
▁race	-2471
▁lines	-2472
▁center	-2473
▁Pacific	-2474
▁western	-2475
ification	-2476
ching	-2477
▁face	-2478
▁Early	-2479
▁Govern	-2480
▁Republic	-2481
uz	-2482
▁Os	-2483
ready	-2484
ributed	-2485
▁Federer	-2486
▁highest	-2487
leg	-2488
oms	-2489
ites	-2490
▁army	-2491
▁Florida	-2492
wh	-2493
ulf	-2494
▁Que	-2495
▁rail	-2496
▁treat	-2497
▁£	-2498
▁Po	-2499
vest	-2500
▁don	-2501
▁gre	-2502
anish	-2503
aries	-2504
▁Gold	-2505
▁change	-2506
▁turned	-2507
▁particip	-2508
ship	-2509
▁nine	-2510
▁surf	-2511
▁female	-2512
▁average	-2513
lict	-2514
▁pen	-2515
ordan	-2516
ession	-2517
porary	-2518
▁School	-2519
▁Richard	-2520
▁arrived	-2521
▁interview	-2522
▁yard	-2523
▁break	-2524
▁signed	-2525
▁territ	-2526
BC	-2527
anks	-2528
clus	-2529
▁Sch	-2530
▁pur	-2531
▁priv	-2532
▁block	-2533
▁itself	-2534
▁taking	-2535
▁claimed	-2536
▁subject	-2537
▁Infantry	-2538
▁Op	-2539
▁Hero	-2540
ecutive	-2541
▁damaged	-2542
▁available	-2543
▁structure	-2544
▁Gr	-2545
eler	-2546
erved	-2547
▁heav	-2548
▁love	-2549
▁contr	-2550
▁Thomas	-2551
▁surround	-2552
▁commercial	-2553
oul	-2554
▁occup	-2555
▁Jordan	-2556
▁immedi	-2557
▁studio	-2558
▁defeated	-2559
ouri	-2560
▁App	-2561
▁piec	-2562
▁community	-2563
▁initially	-2564
abit	-2565
▁Hol	-2566
▁dro	-2567
▁hard	-2568
▁Union	-2569
▁brother	-2570
▁Regiment	-2571
▁training	-2572
ky	-2573
hib	-2574
vert	-2575
arily	-2576
chest	-2577
▁Oliv	-2578
▁bill	-2579
▁despite	-2580
▁section	-2581
▁Od	-2582
band	-2583
gypt	-2584
▁cal	-2585
▁disp	-2586
ulated	-2587
▁names	-2588
▁President	-2589
▁depression	-2590
▁Dr	-2591
rian	-2592
▁Met	-2593
▁Vir	-2594
▁gold	-2595
▁Award	-2596
ximately	-2597
▁tru	-2598
▁Egypt	-2599
▁Canada	-2600
▁passed	-2601
▁village	-2602
▁esp	-2603
▁told	-2604
▁whose	-2605
ference	-2606
▁econom	-2607
▁except	-2608
▁quarter	-2609
▁international	-2610
ateg	-2611
▁har	-2612
▁Under	-2613
▁already	-2614
▁increasing	-2615
ila	-2616
oor	-2617
▁Ma	-2618
▁Bel	-2619
▁cru	-2620
▁Year	-2621
arters	-2622
▁Carol	-2623
▁latter	-2624
▁probably	-2625
▁required	-2626
ases	-2627
▁Bus	-2628
▁Tom	-2629
▁That	-2630
▁wide	-2631
▁parts	-2632
▁appointed	-2633
▁key	-2634
stein	-2635
ription	-2636
▁states	-2637
▁establish	-2638
ari	-2639
rag	-2640
ume	-2641
urity	-2642
▁Scott	-2643
▁Vietn	-2644
▁debut	-2645
▁religious	-2646
down	-2647
▁fly	-2648
inist	-2649
▁grad	-2650
▁Times	-2651
oration	-2652
▁police	-2653
▁proper	-2654
▁complet	-2655
▁soldiers	-2656
▁Art	-2657
▁Henry	-2658
▁capital	-2659
▁Missouri	-2660
AS	-2661
ney	-2662
ranch	-2663
thlet	-2664
▁liter	-2665
▁assist	-2666
▁better	-2667
▁forward	-2668
oid	-2669
▁Tem	-2670
▁abs	-2671
▁must	-2672
▁colon	-2673
▁Not	-2674
▁den	-2675
▁come	-2676
▁date	-2677
▁dead	-2678
ilities	-2679
▁beginning	-2680
▁remaining	-2681
▁suggested	-2682
▁anc	-2683
atory	-2684
▁anti	-2685
▁give	-2686
▁size	-2687
▁going	-2688
▁enough	-2689
▁winning	-2690
aby	-2691
▁ap	-2692
hens	-2693
▁Tra	-2694
▁pot	-2695
▁Fort	-2696
▁ended	-2697
ability	-2698
▁determ	-2699
▁decision	-2700
gu	-2701
itor	-2702
▁Hel	-2703
▁Sun	-2704
▁failed	-2705
▁nearly	-2706
▁writer	-2707
▁independ	-2708
▁according	-2709
rang	-2710
▁Fe	-2711
olic	-2712
▁Mal	-2713
▁Cong	-2714
▁Nero	-2715
▁Tech	-2716
atives	-2717
▁touch	-2718
▁Africa	-2719
gl	-2720
ks	-2721
▁Film	-2722
▁phys	-2723
▁sect	-2724
▁India	-2725
▁goals	-2726
▁shows	-2727
ecially	-2728
▁complete	-2729
▁language	-2730
▁aut	-2731
▁lower	-2732
▁might	-2733
▁score	-2734
▁Charles	-2735
▁Squadron	-2736
▁introduced	-2737
onse	-2738
▁Pet	-2739
▁fut	-2740
▁feel	-2741
uments	-2742
▁Associ	-2743
▁remain	-2744
of	-2745
▁tow	-2746
illery	-2747
▁depict	-2748
▁running	-2749
▁captured	-2750
▁recording	-2751
▁?	-2752
den	-2753
▁Ot	-2754
rics	-2755
ronic	-2756
▁Camp	-2757
▁Card	-2758
▁Mont	-2759
▁Vict	-2760
▁educ	-2761
▁Brown	-2762
▁Peter	-2763
▁minor	-2764
▁prior	-2765
▁spent	-2766
aughter	-2767
▁league	-2768
▁Germany	-2769
▁Spanish	-2770
▁especially	-2771
lor	-2772
ests	-2773
iest	-2774
▁Pat	-2775
▁Many	-2776
idents	-2777
▁Irish	-2778
▁limited	-2779
▁destroyed	-2780
▁supported	-2781
▁approximately	-2782
ga	-2783
▁Var	-2784
aring	-2785
▁Sing	-2786
▁chap	-2787
▁issue	-2788
▁groups	-2789
▁History	-2790
▁intended	-2791
▁Whe	-2792
▁Mil	-2793
▁imm	-2794
▁mur	-2795
odies	-2796
quare	-2797
▁deal	-2798
▁network	-2799
▁reviews	-2800
▁division	-2801
▁discovered	-2802
raw	-2803
▁Mos	-2804
▁kil	-2805
rying	-2806
▁fleet	-2807
▁reveal	-2808
▁response	-2809
▁doc	-2810
▁sat	-2811
▁staff	-2812
▁Awards	-2813
▁includes	-2814
▁sometimes	-2815
inct	-2816
reak	-2817
▁office	-2818
▁screen	-2819
ils	-2820
rief	-2821
inent	-2822
▁Nort	-2823
▁Stud	-2824
▁food	-2825
▁runs	-2826
▁archae	-2827
▁larger	-2828
▁certain	-2829
▁changes	-2830
▁Canadian	-2831
▁positive	-2832
ises	-2833
▁Tur	-2834
▁inn	-2835
orning	-2836
▁agreed	-2837
▁Another	-2838
▁Western	-2839
▁magazine	-2840
▁additional	-2841
▁ri	-2842
fect	-2843
order	-2844
▁Coun	-2845
▁happ	-2846
▁male	-2847
▁Colle	-2848
▁mixed	-2849
ha	-2850
back	-2851
ples	-2852
uing	-2853
▁sch	-2854
ishop	-2855
▁Cour	-2856
▁Oldham	-2857
▁script	-2858
▁provide	-2859
▁fighting	-2860
▁Pri	-2861
▁Soc	-2862
▁che	-2863
anies	-2864
▁exam	-2865
▁journ	-2866
▁social	-2867
quarters	-2868
ads	-2869
▁Je	-2870
▁sem	-2871
▁fail	-2872
▁domin	-2873
▁indic	-2874
▁mostly	-2875
ires	-2876
lymp	-2877
▁Frank	-2878
▁feature	-2879
edy	-2880
lex	-2881
anna	-2882
▁Bur	-2883
▁deep	-2884
hedral	-2885
▁frequ	-2886
▁forest	-2887
▁usually	-2888
▁pressure	-2889
▁Hurricane	-2890
▁positions	-2891
▁uns	-2892
▁Olymp	-2893
▁III	-2894
▁pair	-2895
▁type	-2896
change	-2897
▁compl	-2898
▁amount	-2899
▁mention	-2900
irt	-2901
oke	-2902
igan	-2903
iser	-2904
▁Hot	-2905
▁Law	-2906
▁Rad	-2907
▁adop	-2908
▁bomb	-2909
▁Inter	-2910
▁guitar	-2911
▁minutes	-2912
▁UK	-2913
fact	-2914
▁ens	-2915
iring	-2916
stant	-2917
▁Over	-2918
▁Serv	-2919
▁radio	-2920
atively	-2921
osaurus	-2922
▁future	-2923
▁carried	-2924
▁becoming	-2925
umn	-2926
teen	-2927
▁sil	-2928
▁unc	-2929
▁China	-2930
▁shown	-2931
▁defeat	-2932
▁smaller	-2933
▁subsequently	-2934
▁Ver	-2935
isions	-2936
ospital	-2937
▁Olivier	-2938
▁TV	-2939
bers	-2940
ills	-2941
▁Ter	-2942
▁word	-2943
▁Since	-2944
▁favor	-2945
▁contem	-2946
▁likely	-2947
▁conclud	-2948
▁president	-2949
asy	-2950
mon	-2951
enty	-2952
mond	-2953
▁Jin	-2954
under	-2955
▁Ever	-2956
▁Star	-2957
▁adapt	-2958
▁teams	-2959
▁counter	-2960
NA	-2961
het	-2962
oys	-2963
itte	-2964
▁Ant	-2965
▁vot	-2966
▁Mart	-2967
▁Jewish	-2968
▁percent	-2969
▁quickly	-2970
▁referred	-2971
ady	-2972
aded	-2973
uals	-2974
▁Dan	-2975
▁Res	-2976
▁und	-2977
▁Back	-2978
▁stay	-2979
▁tons	-2980
▁quest	-2981
▁woman	-2982
▁entered	-2983
▁location	-2984
▁problems	-2985
omm	-2986
oud	-2987
ror	-2988
ands	-2989
cean	-2990
onna	-2991
▁Ben	-2992
▁Off	-2993
▁Rac	-2994
peror	-2995
▁Cath	-2996
ounded	-2997
▁Guitar	-2998
▁Victor	-2999
ios	-3000
▁lo	-3001
▁der	-3002
▁Penn	-3003
▁fifth	-3004
▁notes	-3005
▁inters	-3006
▁ranked	-3007
▁temper	-3008
▁Billboard	-3009
▁Association	-3010
unt	-3011
imum	-3012
▁appl	-3013
▁birth	-3014
▁professional	-3015
gen	-3016
gely	-3017
rael	-3018
▁flow	-3019
▁keep	-3020
▁stra	-3021
▁brief	-3022
▁Second	-3023
▁related	-3024
▁surface	-3025
dle	-3026
▁di	-3027
▁sea	-3028
iforn	-3029
imate	-3030
▁unit	-3031
▁Force	-3032
▁media	-3033
ication	-3034
▁moving	-3035
▁concern	-3036
▁leaving	-3037
▁Tropical	-3038
usp	-3039
well	-3040
▁amb	-3041
▁self	-3042
▁Manila	-3043
▁majority	-3044
▁officers	-3045
▁constructed	-3046
ny	-3047
▁env	-3048
▁idea	-3049
▁thick	-3050
▁visit	-3051
▁minute	-3052
▁complex	-3053
▁concert	-3054
▁consist	-3055
▁launched	-3056
▁students	-3057
▁suffered	-3058
hy	-3059
gar	-3060
rat	-3061
ses	-3062
anced	-3063
andon	-3064
▁rapid	-3065
▁attacked	-3066
▁Sur	-3067
▁Ital	-3068
▁Tour	-3069
selves	-3070
▁shoot	-3071
▁Virgin	-3072
▁primary	-3073
▁assigned	-3074
▁themselves	-3075
▁Latin	-3076
▁Light	-3077
▁makes	-3078
▁always	-3079
▁discuss	-3080
▁effects	-3081
▁largely	-3082
▁overall	-3083
▁Californ	-3084
▁artillery	-3085
era	-3086
ners	-3087
▁ult	-3088
▁Head	-3089
▁speed	-3090
▁Israel	-3091
▁summer	-3092
▁Jer	-3093
▁cele	-3094
▁films	-3095
▁learn	-3096
▁create	-3097
▁Central	-3098
▁Council	-3099
▁occurred	-3100
▁Mr	-3101
▁cm	-3102
▁How	-3103
▁Sam	-3104
▁Tre	-3105
▁ran	-3106
arent	-3107
▁cann	-3108
▁link	-3109
▁rein	-3110
▁lyrics	-3111
▁consider	-3112
▁contains	-3113
▁cer	-3114
alled	-3115
▁longer	-3116
▁attacks	-3117
▁attract	-3118
▁product	-3119
▁critical	-3120
hou	-3121
ulpt	-3122
vens	-3123
aches	-3124
thing	-3125
▁Arch	-3126
▁Brad	-3127
▁Jose	-3128
▁Wood	-3129
▁cred	-3130
▁dark	-3131
▁emer	-3132
▁Wheeler	-3133
▁traffic	-3134
▁investig	-3135
▁Up	-3136
▁fans	-3137
▁meth	-3138
▁Storm	-3139
▁image	-3140
▁slight	-3141
▁broadcast	-3142
rown	-3143
▁deg	-3144
lands	-3145
▁Croat	-3146
▁Major	-3147
▁lived	-3148
▁schol	-3149
▁status	-3150
▁appears	-3151
▁kilomet	-3152
▁musical	-3153
▁controll	-3154
▁increase	-3155
▁movement	-3156
▁Dem	-3157
▁job	-3158
▁lab	-3159
▁prem	-3160
undred	-3161
▁asked	-3162
▁casual	-3163
▁abandon	-3164
▁conflict	-3165
▁proposed	-3166
▁California	-3167
▁commission	-3168
▁experience	-3169
RA	-3170
▁doll	-3171
itting	-3172
▁money	-3173
▁purch	-3174
▁access	-3175
▁scenes	-3176
▁sculpt	-3177
ani	-3178
imb	-3179
lin	-3180
▁Haw	-3181
▁jud	-3182
▁tar	-3183
▁Sever	-3184
▁forms	-3185
▁grant	-3186
▁voice	-3187
▁listed	-3188
▁election	-3189
ex	-3190
zy	-3191
arts	-3192
▁bow	-3193
incip	-3194
riage	-3195
▁Fore	-3196
inated	-3197
▁below	-3198
▁observ	-3199
▁removed	-3200
▁request	-3201
▁commander	-3202
▁influence	-3203
mas	-3204
cend	-3205
eway	-3206
ously	-3207
▁Camb	-3208
▁Ross	-3209
▁bring	-3210
▁party	-3211
▁centre	-3212
▁Stevens	-3213
▁Commission	-3214
▁associated	-3215
ken	-3216
▁RA	-3217
ergy	-3218
erve	-3219
▁Sov	-3220
▁cle	-3221
eding	-3222
▁Dist	-3223
▁acqu	-3224
▁dram	-3225
▁meant	-3226
▁reach	-3227
▁ending	-3228
▁nature	-3229
▁concept	-3230
▁numbers	-3231
▁Rob	-3232
ander	-3233
▁cyclone	-3234
▁planned	-3235
▁serious	-3236
▁Northern	-3237
▁daughter	-3238
ulu	-3239
▁FI	-3240
ruit	-3241
▁ded	-3242
▁mom	-3243
▁dism	-3244
▁Earth	-3245
▁earth	-3246
▁leave	-3247
▁terms	-3248
▁Rachel	-3249
▁African	-3250
▁changed	-3251
▁private	-3252
▁Michigan	-3253
awn	-3254
▁Bu	-3255
ging	-3256
umed	-3257
▁Att	-3258
▁lif	-3259
▁Lake	-3260
▁thus	-3261
▁underst	-3262
ylv	-3263
▁Lou	-3264
▁bad	-3265
▁Arab	-3266
▁plat	-3267
▁plot	-3268
▁susp	-3269
▁Court	-3270
▁birds	-3271
▁stone	-3272
▁upper	-3273
▁awarded	-3274
▁morning	-3275
▁personal	-3276
▁performances	-3277
II	-3278
lo	-3279
▁Sal	-3280
▁Tex	-3281
▁got	-3282
itect	-3283
▁rare	-3284
▁plans	-3285
▁trade	-3286
itation	-3287
▁double	-3288
▁unable	-3289
▁whether	-3290
▁buildings	-3291
ify	-3292
ria	-3293
▁BC	-3294
▁If	-3295
atre	-3296
▁lay	-3297
▁Rose	-3298
▁chall	-3299
▁conver	-3300
▁flight	-3301
▁culture	-3302
▁finally	-3303
▁research	-3304
▁operation	-3305
tr	-3306
irl	-3307
▁Do	-3308
aven	-3309
hips	-3310
iano	-3311
▁Del	-3312
ellig	-3313
ittee	-3314
▁tell	-3315
▁weap	-3316
▁focus	-3317
▁Center	-3318
▁natural	-3319
▁records	-3320
▁infantry	-3321
▁conducted	-3322
▁Hu	-3323
ails	-3324
▁Jim	-3325
▁asp	-3326
ortun	-3327
▁Club	-3328
▁Three	-3329
▁sched	-3330
▁issued	-3331
▁collect	-3332
▁meaning	-3333
▁compared	-3334
▁strength	-3335
▁commented	-3336
▁competition	-3337
aily	-3338
▁Its	-3339
▁Nic	-3340
▁Sen	-3341
▁yet	-3342
aught	-3343
▁Chic	-3344
▁Jane	-3345
▁fell	-3346
ective	-3347
▁takes	-3348
▁accomp	-3349
▁living	-3350
iant	-3351
▁dig	-3352
▁theme	-3353
▁method	-3354
▁Through	-3355
▁covered	-3356
iqu	-3357
▁Tay	-3358
venue	-3359
▁coach	-3360
▁polic	-3361
▁prevent	-3362
▁presence	-3363
ifa	-3364
▁Bow	-3365
▁log	-3366
▁Form	-3367
▁newsp	-3368
▁figure	-3369
▁raised	-3370
▁advance	-3371
▁battles	-3372
▁episodes	-3373
▁industry	-3374
▁attempted	-3375
ili	-3376
sen	-3377
bury	-3378
ening	-3379
▁talk	-3380
usband	-3381
▁Trans	-3382
ologist	-3383
▁Museum	-3384
▁batter	-3385
▁health	-3386
▁offered	-3387
▁northeast	-3388
▁responsible	-3389
ado	-3390
car	-3391
▁Tw	-3392
enon	-3393
rial	-3394
▁Bob	-3395
▁Emp	-3396
▁done	-3397
istics	-3398
▁Enter	-3399
▁whole	-3400
▁Portug	-3401
▁earned	-3402
▁experi	-3403
▁marked	-3404
▁College	-3405
▁companies	-3406
▁immediately	-3407
ocr	-3408
oir	-3409
▁Go	-3410
▁Ho	-3411
tain	-3412
▁big	-3413
▁era	-3414
▁our	-3415
▁via	-3416
▁Texas	-3417
▁tourn	-3418
emorial	-3419
▁giving	-3420
▁murder	-3421
▁weaken	-3422
▁Philipp	-3423
▁matches	-3424
▁schools	-3425
▁Parliament	-3426
ras	-3427
ipped	-3428
itude	-3429
▁Both	-3430
▁Just	-3431
▁park	-3432
▁prep	-3433
▁helped	-3434
▁stories	-3435
▁directly	-3436
▁selected	-3437
▁+	-3438
alys	-3439
▁sal	-3440
▁phot	-3441
▁purs	-3442
▁Corps	-3443
▁Haifa	-3444
▁begins	-3445
▁Chicago	-3446
▁starting	-3447
bar	-3448
onym	-3449
▁Sar	-3450
embly	-3451
▁Acad	-3452
▁Taylor	-3453
▁hundred	-3454
▁machine	-3455
▁married	-3456
▁composed	-3457
▁individual	-3458
kan	-3459
olk	-3460
ows	-3461
etic	-3462
▁Adm	-3463
▁Bey	-3464
▁Nor	-3465
▁pay	-3466
▁uses	-3467
vement	-3468
▁Cross	-3469
▁nearby	-3470
▁Several	-3471
▁greater	-3472
▁Catholic	-3473
▁Department	-3474
▁traditional	-3475
CA	-3476
ada	-3477
etr	-3478
rain	-3479
▁Sea	-3480
▁hop	-3481
ports	-3482
▁Foot	-3483
▁kind	-3484
▁rear	-3485
▁cause	-3486
▁really	-3487
▁waters	-3488
▁Christmas	-3489
▁battalion	-3490
án	-3491
▁Big	-3492
▁box	-3493
▁evac	-3494
▁closed	-3495
▁necess	-3496
▁reject	-3497
▁continue	-3498
▁Operation	-3499
isl	-3500
▁ox	-3501
▁hour	-3502
▁annual	-3503
▁highly	-3504
▁market	-3505
MS	-3506
sc	-3507
ype	-3508
berg	-3509
rowd	-3510
▁Sol	-3511
▁mor	-3512
▁norm	-3513
▁bound	-3514
▁shell	-3515
▁throw	-3516
isation	-3517
stitute	-3518
▁Series	-3519
▁financ	-3520
▁inside	-3521
▁initial	-3522
▁leaders	-3523
▁recover	-3524
▁casualties	-3525
ev	-3526
hew	-3527
iva	-3528
agon	-3529
ibly	-3530
▁Cer	-3531
▁Out	-3532
▁tax	-3533
ondyl	-3534
orpor	-3535
▁Scot	-3536
veston	-3537
▁graph	-3538
▁nucle	-3539
▁artist	-3540
▁impact	-3541
▁assault	-3542
▁greatest	-3543
▁resulted	-3544
▁Galveston	-3545
onc	-3546
ican	-3547
ether	-3548
▁Turn	-3549
▁course	-3550
▁Italian	-3551
▁Service	-3552
▁situation	-3553
edo	-3554
ien	-3555
olf	-3556
aped	-3557
▁Ill	-3558
▁Los	-3559
▁dom	-3560
▁dyn	-3561
▁drum	-3562
▁Georg	-3563
▁metal	-3564
▁defend	-3565
▁middle	-3566
▁specific	-3567
ón	-3568
ares	-3569
like	-3570
▁ess	-3571
▁hot	-3572
▁pil	-3573
uries	-3574
▁gods	-3575
▁sout	-3576
▁Saint	-3577
▁books	-3578
▁deploy	-3579
▁secret	-3580
ospondyl	-3581
▁figures	-3582
▁attempts	-3583
▁inspired	-3584
▁touchdown	-3585
▁controvers	-3586
▁information	-3587
TV	-3588
isk	-3589
anta	-3590
icle	-3591
pool	-3592
▁Hum	-3593
▁Six	-3594
▁sev	-3595
atops	-3596
▁Tenn	-3597
▁Charl	-3598
▁boats	-3599
▁sides	-3600
▁active	-3601
▁things	-3602
▁tracks	-3603
▁allowing	-3604
▁extended	-3605
▁services	-3606
▁standard	-3607
▁something	-3608
▁headquarters	-3609
▁x	-3610
▁AI	-3611
ctor	-3612
lers	-3613
▁Are	-3614
▁Jam	-3615
▁pick	-3616
▁Party	-3617
▁feder	-3618
▁naval	-3619
▁advant	-3620
▁audience	-3621
▁powerful	-3622
ims	-3623
rey	-3624
rane	-3625
▁enj	-3626
adium	-3627
light	-3628
▁Long	-3629
▁path	-3630
▁vers	-3631
▁Villa	-3632
▁needed	-3633
▁search	-3634
▁struck	-3635
▁vocals	-3636
▁Jackson	-3637
▁refused	-3638
▁stating	-3639
▁Carolina	-3640
▁approach	-3641
▁numerous	-3642
uit	-3643
agan	-3644
itch	-3645
▁ast	-3646
▁max	-3647
aging	-3648
▁Lady	-3649
▁walk	-3650
▁heads	-3651
▁Soviet	-3652
▁confir	-3653
▁heavily	-3654
een	-3655
rid	-3656
vin	-3657
▁Bec	-3658
▁Ott	-3659
izing	-3660
▁Crit	-3661
▁Mill	-3662
▁rate	-3663
▁room	-3664
▁rule	-3665
▁Alice	-3666
▁blood	-3667
▁Empire	-3668
▁multip	-3669
▁intensity	-3670
▁contemporary	-3671
▁Er	-3672
roll	-3673
▁Live	-3674
▁purp	-3675
▁Group	-3676
▁Smith	-3677
▁Their	-3678
▁genus	-3679
▁Joseph	-3680
▁bodies	-3681
▁combat	-3682
▁meeting	-3683
▁variety	-3684
▁separate	-3685
▁conditions	-3686
ams	-3687
eds	-3688
▁Alex	-3689
▁Conf	-3690
▁Spec	-3691
▁task	-3692
▁peace	-3693
chester	-3694
▁transl	-3695
iles	-3696
ixon	-3697
▁Fin	-3698
house	-3699
ecting	-3700
▁crowd	-3701
▁plant	-3702
ylvania	-3703
▁Polish	-3704
▁higher	-3705
▁houses	-3706
▁peaked	-3707
▁source	-3708
▁Highway	-3709
▁husband	-3710
▁declared	-3711
▁slightly	-3712
▁education	-3713
ees	-3714
ols	-3715
▁Lo	-3716
▁Mey	-3717
ushed	-3718
▁Four	-3719
▁Midd	-3720
perial	-3721
▁hands	-3722
▁reduced	-3723
▁producer	-3724
▁presented	-3725
▁respectively	-3726
can	-3727
yph	-3728
▁Dj	-3729
▁Kn	-3730
icip	-3731
odon	-3732
omer	-3733
▁ple	-3734
uated	-3735
▁Post	-3736
▁Civil	-3737
▁Liver	-3738
▁Penns	-3739
▁extre	-3740
▁sixth	-3741
▁celebr	-3742
▁native	-3743
ribution	-3744
▁Nations	-3745
▁officer	-3746
▁studies	-3747
▁security	-3748
▁residents	-3749
▁collection	-3750
ka	-3751
iny	-3752
anas	-3753
▁thr	-3754
▁Cont	-3755
▁hero	-3756
▁Little	-3757
▁constit	-3758
▁friends	-3759
rol	-3760
▁Sir	-3761
arrow	-3762
rance	-3763
▁Burn	-3764
▁Capt	-3765
▁Cast	-3766
▁Wash	-3767
▁prec	-3768
arents	-3769
ension	-3770
▁Final	-3771
▁Young	-3772
▁space	-3773
irection	-3774
▁princip	-3775
▁wounded	-3776
▁northwest	-3777
▁completely	-3778
▁championship	-3779
bon	-3780
iral	-3781
pted	-3782
▁Rev	-3783
▁eye	-3784
▁saf	-3785
athan	-3786
▁Time	-3787
▁beat	-3788
▁text	-3789
▁Alkan	-3790
▁Chris	-3791
▁grand	-3792
▁means	-3793
estival	-3794
▁Common	-3795
▁Somers	-3796
▁bridge	-3797
▁writers	-3798
▁activity	-3799
▁combined	-3800
oses	-3801
▁Def	-3802
▁Fam	-3803
andid	-3804
illed	-3805
ounds	-3806
▁Land	-3807
▁copies	-3808
▁intern	-3809
▁singer	-3810
▁display	-3811
▁respond	-3812
▁administ	-3813
▁contrast	-3814
▁distance	-3815
▁marriage	-3816
▁Liverpool	-3817
▁architect	-3818
▁continues	-3819
▁countries	-3820
ift	-3821
ket	-3822
▁ir	-3823
ogue	-3824
oura	-3825
▁Bet	-3826
▁veh	-3827
alist	-3828
tered	-3829
▁symb	-3830
orpedo	-3831
▁Games	-3832
▁Nixon	-3833
▁Paris	-3834
▁Somal	-3835
▁disapp	-3836
▁reinfor	-3837
▁Football	-3838
▁Virginia	-3839
▁expected	-3840
▁Washington	-3841
emic	-3842
▁cam	-3843
stone	-3844
track	-3845
▁sust	-3846
▁Busch	-3847
▁displ	-3848
▁draft	-3849
▁Histor	-3850
▁border	-3851
▁inches	-3852
▁issues	-3853
▁levels	-3854
▁widely	-3855
▁Independ	-3856
▁Somerset	-3857
▁interact	-3858
▁concluded	-3859
▁transferred	-3860
inth	-3861
ware	-3862
▁Bre	-3863
▁Cor	-3864
▁Jul	-3865
▁ang	-3866
▁pow	-3867
▁Book	-3868
▁Cons	-3869
▁Water	-3870
▁relief	-3871
▁strike	-3872
▁Southern	-3873
▁actually	-3874
▁cathedral	-3875
▁territory	-3876
▁activities	-3877
▁Australians	-3878
▁Pennsylvania	-3879
ems	-3880
▁Fow	-3881
iated	-3882
umber	-3883
while	-3884
▁Lock	-3885
▁bene	-3886
▁Queen	-3887
▁Spain	-3888
▁board	-3889
▁enjoy	-3890
▁Mosley	-3891
▁efforts	-3892
lam	-3893
asty	-3894
iled	-3895
▁Cat	-3896
▁Des	-3897
▁Jos	-3898
annel	-3899
▁elev	-3900
▁Colon	-3901
▁Franc	-3902
▁Green	-3903
▁Louis	-3904
▁suppl	-3905
▁effort	-3906
▁sexual	-3907
▁toward	-3908
ulations	-3909
▁actions	-3910
▁ancient	-3911
▁withdraw	-3912
▁describes	-3913
ij	-3914
anz	-3915
ibr	-3916
▁Li	-3917
anes	-3918
bery	-3919
bour	-3920
inus	-3921
ocks	-3922
onic	-3923
▁Dam	-3924
▁Naz	-3925
▁inh	-3926
▁pun	-3927
anded	-3928
isher	-3929
ufact	-3930
▁Like	-3931
▁qual	-3932
▁adult	-3933
▁exhib	-3934
▁reign	-3935
▁rough	-3936
▁ironcl	-3937
▁managed	-3938
▁torpedo	-3939
▁rainfall	-3940
▁revealed	-3941
▁attention	-3942
▁offensive	-3943
▁background	-3944
ersh	-3945
iami	-3946
irit	-3947
mark	-3948
utch	-3949
▁Arm	-3950
▁Der	-3951
▁Inn	-3952
▁tur	-3953
oured	-3954
▁blue	-3955
▁today	-3956
▁county	-3957
▁rights	-3958
▁Vietnam	-3959
▁becomes	-3960
▁defense	-3961
▁mission	-3962
▁accepted	-3963
▁distinct	-3964
▁sequence	-3965
▁primarily	-3966
▁resulting	-3967
yr	-3968
hood	-3969
▁Tri	-3970
▁mel	-3971
idian	-3972
imony	-3973
▁says	-3974
tation	-3975
▁habit	-3976
▁mainly	-3977
▁Because	-3978
▁mountain	-3979
▁opportun	-3980
▁alongside	-3981
▁Government	-3982
▁designated	-3983
▁Bon	-3984
usion	-3985
▁dise	-3986
▁kick	-3987
ampion	-3988
▁Class	-3989
▁faced	-3990
▁trees	-3991
▁Fowler	-3992
▁Korean	-3993
▁recent	-3994
▁square	-3995
▁concent	-3996
▁demonst	-3997
▁pattern	-3998
▁squadron	-3999
cy	-4000
▁WW	-4001
room	-4002
▁Add	-4003
▁Fer	-4004
ledge	-4005
▁wear	-4006
nesota	-4007
▁Miami	-4008
▁print	-4009
▁Angeles	-4010
▁progress	-4011
▁question	-4012
▁Minnesota	-4013
▁featuring	-4014
▁appearances	-4015
kin	-4016
use	-4017
ingu	-4018
▁Bol	-4019
▁Pen	-4020
echan	-4021
enant	-4022
▁jump	-4023
▁onto	-4024
▁true	-4025
▁piano	-4026
▁roles	-4027
▁ability	-4028
apo	-4029
ela	-4030
hold	-4031
▁Tod	-4032
acher	-4033
▁Kent	-4034
▁corn	-4035
itness	-4036
▁paper	-4037
▁plays	-4038
▁compos	-4039
▁depart	-4040
▁condoms	-4041
▁federal	-4042
▁organization	-4043
adm	-4044
bed	-4045
cle	-4046
ena	-4047
▁Of	-4048
▁roy	-4049
shire	-4050
▁bott	-4051
▁resc	-4052
▁vess	-4053
▁youn	-4054
ceeded	-4055
▁sense	-4056
▁altern	-4057
▁coming	-4058
▁recomm	-4059
▁showed	-4060
▁Academy	-4061
▁calling	-4062
▁parents	-4063
▁portion	-4064
▁quality	-4065
▁scoring	-4066
▁seasons	-4067
▁Scotland	-4068
▁observed	-4069
▁practice	-4070
▁Manchester	-4071
BA	-4072
airs	-4073
▁Ann	-4074
▁hol	-4075
▁lot	-4076
▁rhy	-4077
▁Bint	-4078
▁Mean	-4079
yphoon	-4080
▁instit	-4081
ironment	-4082
▁Bintulu	-4083
▁elected	-4084
▁historical	-4085
▁relatively	-4086
mun	-4087
essa	-4088
▁Ram	-4089
▁News	-4090
▁brown	-4091
▁owned	-4092
▁words	-4093
▁encoun	-4094
▁losing	-4095
▁remark	-4096
▁strugg	-4097
ervation	-4098
ologists	-4099
▁invasion	-4100
▁reception	-4101
▁ultimately	-4102
▁university	-4103
kn	-4104
▁Mog	-4105
▁suc	-4106
estic	-4107
▁edge	-4108
▁rang	-4109
▁Field	-4110
▁Meyer	-4111
▁armed	-4112
▁scale	-4113
▁Captain	-4114
▁Russian	-4115
▁Society	-4116
▁apparent	-4117
gal	-4118
udd	-4119
oncé	-4120
osen	-4121
pole	-4122
▁Cap	-4123
▁Gar	-4124
▁Mat	-4125
icles	-4126
▁Mass	-4127
▁Matt	-4128
▁fast	-4129
▁enemy	-4130
▁excav	-4131
▁heart	-4132
▁legal	-4133
essions	-4134
▁athlet	-4135
▁nation	-4136
▁twenty	-4137
▁Beyoncé	-4138
▁defence	-4139
elligence	-4140
▁Meridian	-4141
▁influenced	-4142
▁Ul	-4143
▁Che	-4144
▁Dou	-4145
▁Tik	-4146
▁agg	-4147
▁spl	-4148
▁mile	-4149
▁narr	-4150
ricket	-4151
▁Hawai	-4152
▁fully	-4153
▁instr	-4154
▁offer	-4155
▁thous	-4156
▁Columb	-4157
▁Though	-4158
▁cannot	-4159
▁prepar	-4160
ications	-4161
▁Anderson	-4162
▁proteins	-4163
▁expressed	-4164
▁typically	-4165
▁surrounding	-4166
uzz	-4167
oper	-4168
town	-4169
▁Pit	-4170
▁Sum	-4171
▁mem	-4172
pping	-4173
▁chem	-4174
▁emph	-4175
▁magn	-4176
▁mole	-4177
▁sets	-4178
▁step	-4179
alysis	-4180
onents	-4181
utions	-4182
▁homes	-4183
▁dissip	-4184
▁narrow	-4185
▁prison	-4186
▁spread	-4187
▁adopted	-4188
▁portray	-4189
▁produce	-4190
▁Churchill	-4191
▁represented	-4192
ala	-4193
asc	-4194
the	-4195
road	-4196
▁Far	-4197
▁Pop	-4198
▁Wels	-4199
▁emot	-4200
▁wing	-4201
eption	-4202
orship	-4203
acement	-4204
▁Temple	-4205
▁legisl	-4206
▁contact	-4207
▁maximum	-4208
▁Richmond	-4209
▁reaction	-4210
▁advantage	-4211
▁organized	-4212
gs	-4213
mes	-4214
ona	-4215
▁du	-4216
burg	-4217
ends	-4218
ugby	-4219
▁Hal	-4220
▁sen	-4221
▁inch	-4222
▁webs	-4223
admium	-4224
▁Welsh	-4225
▁extra	-4226
▁floor	-4227
▁neigh	-4228
▁tried	-4229
▁Prince	-4230
▁broken	-4231
▁artists	-4232
▁nuclear	-4233
▁officials	-4234
▁Ox	-4235
▁vo	-4236
▁Sil	-4237
▁aid	-4238
▁pal	-4239
astic	-4240
rical	-4241
▁Gall	-4242
▁Week	-4243
▁Ocean	-4244
▁paint	-4245
▁types	-4246
▁Andrew	-4247
▁Commun	-4248
▁Direct	-4249
▁themes	-4250
▁edition	-4251
▁reports	-4252
▁earliest	-4253
▁manufact	-4254
▁personnel	-4255
ply	-4256
▁Ka	-4257
▁Ro	-4258
enge	-4259
rong	-4260
▁hyd	-4261
▁mis	-4262
▁Blue	-4263
▁Home	-4264
▁Open	-4265
▁Orig	-4266
mitted	-4267
▁tower	-4268
▁Marine	-4269
▁Thunder	-4270
▁capture	-4271
▁divided	-4272
▁sources	-4273
▁District	-4274
▁abandoned	-4275
▁financial	-4276
ux	-4277
aen	-4278
lim	-4279
pre	-4280
▁Av	-4281
▁wa	-4282
etts	-4283
rate	-4284
writ	-4285
▁Prot	-4286
issipp	-4287
▁Tikal	-4288
▁alone	-4289
▁horse	-4290
▁model	-4291
▁mouth	-4292
▁Illino	-4293
▁acting	-4294
▁emphas	-4295
▁sister	-4296
▁titled	-4297
▁achieved	-4298
▁Mississipp	-4299
▁soundtrack	-4300
▁sn	-4301
izes	-4302
▁Boy	-4303
▁Lie	-4304
cript	-4305
▁Balt	-4306
▁Turk	-4307
▁repe	-4308
▁Mogad	-4309
▁actor	-4310
▁royal	-4311
▁stopp	-4312
unction	-4313
▁Edward	-4314
▁Middle	-4315
▁Secret	-4316
▁specim	-4317
▁shortly	-4318
▁viewers	-4319
nospondyl	-4320
▁affected	-4321
▁direction	-4322
▁prominent	-4323
che	-4324
wen	-4325
acks	-4326
send	-4327
▁Fred	-4328
▁thir	-4329
▁Fleet	-4330
▁basis	-4331
▁movie	-4332
▁write	-4333
▁Rhodes	-4334
▁Records	-4335
▁founded	-4336
▁defensive	-4337
▁newspaper	-4338
▁Mississippi	-4339
ura	-4340
▁Arg	-4341
▁Kir	-4342
▁Nes	-4343
ograp	-4344
▁Ball	-4345
▁girl	-4346
▁mind	-4347
▁weak	-4348
alions	-4349
▁Braat	-4350
▁doing	-4351
▁Avenue	-4352
▁Review	-4353
▁candid	-4354
▁cities	-4355
▁Johnson	-4356
▁attended	-4357
▁flooding	-4358
▁operated	-4359
▁mentioned	-4360
▁structures	-4361
ette	-4362
▁Gib	-4363
▁sac	-4364
claim	-4365
known	-4366
▁paid	-4367
ipment	-4368
▁fruit	-4369
▁xenon	-4370
▁couple	-4371
▁hospital	-4372
▁dedicated	-4373
▁potential	-4374
▁officially	-4375
▁tournament	-4376
hu	-4377
bit	-4378
irm	-4379
orus	-4380
uous	-4381
wide	-4382
anger	-4383
ector	-4384
eller	-4385
prise	-4386
▁Wild	-4387
▁your	-4388
▁shape	-4389
▁Engine	-4390
▁Turner	-4391
▁comedy	-4392
▁mechan	-4393
▁places	-4394
▁cultural	-4395
▁authorities	-4396
FA	-4397
iro	-4398
ora	-4399
▁Bh	-4400
bird	-4401
▁HMS	-4402
akapo	-4403
inkel	-4404
▁broke	-4405
▁lives	-4406
▁trial	-4407
▁Nicole	-4408
▁arrest	-4409
▁basket	-4410
▁perman	-4411
▁proved	-4412
▁scient	-4413
▁titles	-4414
▁passing	-4415
▁Mogadish	-4416
▁consisted	-4417
edd	-4418
▁lb	-4419
inem	-4420
▁Int	-4421
▁rat	-4422
athus	-4423
fully	-4424
orney	-4425
▁Bost	-4426
▁More	-4427
▁mess	-4428
▁roll	-4429
▁sens	-4430
▁enter	-4431
▁piece	-4432
▁appeal	-4433
▁Meyerbe	-4434
▁causing	-4435
▁society	-4436
▁Rosebery	-4437
▁Townsend	-4438
▁occasion	-4439
VD	-4440
ād	-4441
alle	-4442
rect	-4443
▁Cra	-4444
▁Lar	-4445
▁Way	-4446
▁hun	-4447
▁oil	-4448
inary	-4449
istry	-4450
right	-4451
▁Bond	-4452
▁grew	-4453
ricult	-4454
▁Clark	-4455
▁older	-4456
▁sales	-4457
lection	-4458
▁column	-4459
▁illust	-4460
▁Further	-4461
▁Walpole	-4462
▁landing	-4463
▁weapons	-4464
▁straight	-4465
▁Americans	-4466
▁Meyerbeer	-4467
▁Mogadishu	-4468
▁determined	-4469
▁individuals	-4470
aha	-4471
▁ut	-4472
iana	-4473
resh	-4474
▁Raj	-4475
▁Yue	-4476
▁dut	-4477
▁pan	-4478
▁try	-4479
▁Mort	-4480
▁core	-4481
▁Apple	-4482
▁Finkel	-4483
▁images	-4484
▁letter	-4485
▁seconds	-4486
▁univers	-4487
▁incorpor	-4488
▁Finkelstein	-4489
sy	-4490
inn	-4491
▁Hy	-4492
ancy	-4493
▁Max	-4494
▁adj	-4495
▁bank	-4496
▁doub	-4497
isters	-4498
▁Produ	-4499
▁Shiva	-4500
▁Short	-4501
▁Tessa	-4502
▁sites	-4503
▁sport	-4504
▁orders	-4505
▁Ottoman	-4506
▁contain	-4507
▁schedul	-4508
▁unknown	-4509
▁monument	-4510
▁physical	-4511
▁possibly	-4512
▁projects	-4513
▁formation	-4514
▁kilometres	-4515
▁consecutive	-4516
iti	-4517
▁MD	-4518
▁So	-4519
▁Horn	-4520
▁hair	-4521
▁imag	-4522
▁stop	-4523
▁cerem	-4524
▁fired	-4525
▁leader	-4526
▁fiction	-4527
▁follows	-4528
▁rapidly	-4529
▁suggests	-4530
▁criticized	-4531
gn	-4532
omy	-4533
uff	-4534
▁DVD	-4535
▁Wat	-4536
abama	-4537
▁frag	-4538
▁kept	-4539
▁poly	-4540
▁Horse	-4541
▁flank	-4542
▁honor	-4543
▁claims	-4544
▁Alabama	-4545
▁foreign	-4546
▁workers	-4547
▁Illinois	-4548
▁Meanwhile	-4549
▁Portugues	-4550
▁identified	-4551
uan	-4552
win	-4553
▁Om	-4554
aine	-4555
aith	-4556
unte	-4557
▁Due	-4558
▁row	-4559
orter	-4560
▁Writ	-4561
▁laid	-4562
▁seek	-4563
▁chief	-4564
▁gained	-4565
▁supply	-4566
▁Eastern	-4567
▁killing	-4568
▁protein	-4569
▁require	-4570
▁Braathens	-4571
▁equipment	-4572
▁Portuguese	-4573
▁management	-4574
▁Philippines	-4575
uct	-4576
gend	-4577
▁BBC	-4578
▁Bul	-4579
▁Tru	-4580
antly	-4581
▁acad	-4582
▁wild	-4583
▁ahead	-4584
▁behav	-4585
▁attend	-4586
▁temple	-4587
fficient	-4588
▁disease	-4589
▁entrance	-4590
▁Background	-4591
bitt	-4592
▁Leg	-4593
▁Ret	-4594
▁Tim	-4595
▁tim	-4596
ighth	-4597
▁Good	-4598
▁here	-4599
▁Stone	-4600
▁walls	-4601
▁Bridge	-4602
▁advert	-4603
▁energy	-4604
▁sought	-4605
▁yellow	-4606
▁Assembly	-4607
▁reaching	-4608
▁sustained	-4609
adel	-4610
born	-4611
ella	-4612
more	-4613
▁Den	-4614
▁Fey	-4615
▁Gre	-4616
▁wor	-4617
ishes	-4618
▁Tint	-4619
▁hors	-4620
▁sand	-4621
ushing	-4622
▁grass	-4623
▁newly	-4624
arrison	-4625
▁charge	-4626
▁fought	-4627
▁pieces	-4628
▁spirit	-4629
▁target	-4630
▁weight	-4631
▁debuted	-4632
▁landfall	-4633
▁confirmed	-4634
▁environment	-4635
eg	-4636
▁Ll	-4637
outs	-4638
▁End	-4639
▁Fox	-4640
▁Kar	-4641
▁Sat	-4642
▁Van	-4643
asure	-4644
ilies	-4645
▁Lord	-4646
▁Mend	-4647
▁elim	-4648
▁exec	-4649
▁load	-4650
▁spot	-4651
▁wars	-4652
onymous	-4653
▁chosen	-4654
▁master	-4655
▁moment	-4656
▁museum	-4657
▁simply	-4658
▁sports	-4659
▁winter	-4660
▁Olympic	-4661
▁dismiss	-4662
▁emperor	-4663
▁letters	-4664
▁measure	-4665
▁pitched	-4666
▁promoted	-4667
▁Reception	-4668
▁authority	-4669
▁reference	-4670
ador	-4671
iate	-4672
▁Sub	-4673
▁USA	-4674
▁mob	-4675
▁rom	-4676
▁Prov	-4677
▁diam	-4678
▁neut	-4679
▁tact	-4680
▁cases	-4681
▁twice	-4682
mission	-4683
▁Public	-4684
▁Valley	-4685
▁albums	-4686
▁buried	-4687
▁height	-4688
▁passes	-4689
▁granted	-4690
▁regions	-4691
▁advanced	-4692
▁domestic	-4693
▁function	-4694
▁condition	-4695
▁returning	-4696
aud	-4697
uge	-4698
helm	-4699
inet	-4700
▁Mel	-4701
▁say	-4702
▁tun	-4703
lings	-4704
▁Each	-4705
▁Sarn	-4706
▁Zhou	-4707
▁wave	-4708
ertain	-4709
heless	-4710
▁seems	-4711
utenant	-4712
▁Boston	-4713
▁Indust	-4714
▁injury	-4715
▁planet	-4716
▁brigade	-4717
▁dropped	-4718
▁freeway	-4719
▁visited	-4720
▁document	-4721
▁economic	-4722
▁platform	-4723
▁nominated	-4724
ef	-4725
ya	-4726
azz	-4727
iot	-4728
▁AD	-4729
▁UN	-4730
auty	-4731
rete	-4732
▁Fre	-4733
▁Ros	-4734
ental	-4735
ulate	-4736
urban	-4737
▁Even	-4738
▁Rome	-4739
▁Yank	-4740
▁sail	-4741
▁send	-4742
▁color	-4743
▁remix	-4744
▁ridge	-4745
▁Forest	-4746
▁Tintin	-4747
▁poetry	-4748
▁deliver	-4749
▁growing	-4750
▁pitcher	-4751
▁student	-4752
▁Mountain	-4753
▁scholars	-4754
▁therefore	-4755
▁containing	-4756
ola	-4757
▁kg	-4758
▁Gra	-4759
▁Lew	-4760
▁fix	-4761
anasi	-4762
▁Only	-4763
▁fear	-4764
▁mort	-4765
ocated	-4766
▁Ceres	-4767
▁Greek	-4768
▁Night	-4769
▁depth	-4770
▁share	-4771
▁speak	-4772
▁Before	-4773
▁actors	-4774
▁flying	-4775
▁mounted	-4776
▁results	-4777
▁weather	-4778
▁Addition	-4779
▁Varanasi	-4780
▁multiple	-4781
▁necessary	-4782
▁maintained	-4783
de	-4784
ipl	-4785
ayer	-4786
mosp	-4787
ovic	-4788
resp	-4789
▁Eva	-4790
▁hor	-4791
ivity	-4792
olved	-4793
▁Asia	-4794
▁opin	-4795
▁Odaen	-4796
▁label	-4797
▁serve	-4798
▁Argent	-4799
▁filmed	-4800
▁starts	-4801
▁Nesbitt	-4802
▁content	-4803
▁council	-4804
▁looking	-4805
▁standing	-4806
▁currently	-4807
▁historian	-4808
▁knowledge	-4809
ao	-4810
bl	-4811
▁Us	-4812
alls	-4813
thur	-4814
▁Mur	-4815
▁boy	-4816
▁bul	-4817
▁ven	-4818
▁Anth	-4819
▁Team	-4820
▁boat	-4821
▁phil	-4822
▁pict	-4823
▁Among	-4824
▁compr	-4825
▁exped	-4826
▁guest	-4827
▁vocal	-4828
▁Torres	-4829
▁argued	-4830
▁belong	-4831
▁Develop	-4832
▁problem	-4833
▁website	-4834
▁Williams	-4835
▁religion	-4836
▁versions	-4837
▁Odaenathus	-4838
▁controlled	-4839
▁independent	-4840
TC	-4841
Mont	-4842
ider	-4843
▁Jup	-4844
ordon	-4845
▁tank	-4846
▁Dream	-4847
▁Journ	-4848
▁spect	-4849
▁tanks	-4850
▁DuMont	-4851
▁Office	-4852
▁Sarnia	-4853
▁animal	-4854
▁assass	-4855
▁element	-4856
▁rejected	-4857
▁settlement	-4858
▁supporting	-4859
edar	-4860
iner	-4861
umes	-4862
▁Exp	-4863
▁Jon	-4864
▁ham	-4865
▁seg	-4866
iance	-4867
ridge	-4868
▁Fant	-4869
▁Gulf	-4870
▁Iron	-4871
▁Prem	-4872
▁Slam	-4873
▁Work	-4874
▁folk	-4875
▁nest	-4876
▁news	-4877
enture	-4878
iments	-4879
▁Child	-4880
▁Guard	-4881
▁Perón	-4882
▁avoid	-4883
▁lands	-4884
agement	-4885
▁Palest	-4886
▁arrang	-4887
▁writes	-4888
▁medical	-4889
▁retired	-4890
▁collabor	-4891
▁explained	-4892
▁temperature	-4893
▁increasingly	-4894
oted	-4895
▁Bir	-4896
▁Ell	-4897
▁Key	-4898
▁bit	-4899
▁fle	-4900
▁Carl	-4901
▁Dest	-4902
▁Once	-4903
insula	-4904
▁overl	-4905
▁rival	-4906
▁strik	-4907
▁Oxford	-4908
ographer	-4909
▁Airport	-4910
▁reflect	-4911
▁Constant	-4912
▁Minister	-4913
▁Entertain	-4914
▁Conference	-4915
▁Thunderbird	-4916
▁SR	-4917
▁ge	-4918
pass	-4919
▁Ban	-4920
▁risk	-4921
▁guard	-4922
▁kakapo	-4923
▁unique	-4924
▁Congress	-4925
▁battalions	-4926
add	-4927
awa	-4928
ote	-4929
▁FA	-4930
haps	-4931
▁Dar	-4932
▁Mod	-4933
arian	-4934
imore	-4935
▁Bowl	-4936
▁flag	-4937
▁ring	-4938
▁synt	-4939
ancing	-4940
stream	-4941
▁Album	-4942
▁Italy	-4943
▁consp	-4944
▁Allied	-4945
▁System	-4946
▁growth	-4947
▁policy	-4948
▁resemb	-4949
▁Jupiter	-4950
▁believe	-4951
▁cadmium	-4952
▁failure	-4953
▁perfect	-4954
▁protest	-4955
▁science	-4956
▁setting	-4957
▁singles	-4958
▁Scottish	-4959
▁accompan	-4960
▁employed	-4961
▁weakened	-4962
▁connected	-4963
▁scheduled	-4964
▁basketball	-4965
cel	-4966
met	-4967
och	-4968
▁Ca	-4969
oren	-4970
▁Dom	-4971
▁Rog	-4972
▁Ven	-4973
inity	-4974
▁Cole	-4975
▁Norm	-4976
▁bass	-4977
▁ends	-4978
▁fung	-4979
▁Dutch	-4980
▁Helms	-4981
▁Omaha	-4982
▁ideas	-4983
▁Family	-4984
▁campus	-4985
▁colony	-4986
▁matter	-4987
▁submar	-4988
heastern	-4989
▁herself	-4990
▁entirely	-4991
▁families	-4992
▁incident	-4993
▁subsequent	-4994
bo	-4995
eed	-4996
▁Lis	-4997
▁Spr	-4998
▁unf	-4999
ading	-5000
onent	-5001
▁cust	-5002
▁join	-5003
▁solo	-5004
ifying	-5005
▁PlayS	-5006
▁dated	-5007
▁value	-5008
▁belief	-5009
▁compar	-5010
▁famous	-5011
▁senior	-5012
▁wooden	-5013
izations	-5014
▁Wilhelm	-5015
▁descend	-5016
▁singing	-5017
▁Victoria	-5018
▁creating	-5019
▁Institute	-5020
▁contained	-5021
▁PlayStation	-5022
▁contributed	-5023
▁participated	-5024
oe	-5025
▁Ap	-5026
▁Bas	-5027
▁Dis	-5028
▁Sky	-5029
aming	-5030
ocked	-5031
▁Jeff	-5032
▁Line	-5033
▁Step	-5034
▁rise	-5035
itable	-5036
render	-5037
▁Innis	-5038
▁chair	-5039
▁chose	-5040
▁premi	-5041
▁Bishop	-5042
▁bottom	-5043
▁Admiral	-5044
▁battery	-5045
▁opposed	-5046
▁seventh	-5047
▁witness	-5048
▁analysis	-5049
▁prepared	-5050
▁literature	-5051
▁significantly	-5052
eer	-5053
rot	-5054
upp	-5055
▁Ry	-5056
cers	-5057
kare	-5058
load	-5059
phia	-5060
▁Ast	-5061
uting	-5062
▁Gard	-5063
▁Imag	-5064
▁Mike	-5065
▁Mong	-5066
▁Stan	-5067
▁unus	-5068
▁Press	-5069
clusion	-5070
ressive	-5071
▁Gordon	-5072
▁McCall	-5073
adelphia	-5074
▁animals	-5075
▁southeast	-5076
▁frequently	-5077
▁temnospondyl	-5078
MA	-5079
sw	-5080
ips	-5081
▁Rif	-5082
▁swe	-5083
stead	-5084
usted	-5085
▁Bart	-5086
▁Chap	-5087
▁Hart	-5088
▁Vill	-5089
▁roof	-5090
▁unsu	-5091
ashion	-5092
▁Never	-5093
▁aired	-5094
▁defin	-5095
▁drive	-5096
▁roads	-5097
issance	-5098
▁Lester	-5099
▁awards	-5100
▁losses	-5101
▁shaped	-5102
▁Cardiff	-5103
▁college	-5104
▁innings	-5105
▁commonly	-5106
▁occupied	-5107
▁Baltimore	-5108
▁popularity	-5109
aph	-5110
atus	-5111
ulls	-5112
▁ERA	-5113
▁bud	-5114
ansas	-5115
▁Morr	-5116
▁mist	-5117
▁trav	-5118
▁dress	-5119
ructure	-5120
▁paralle	-5121
▁systems	-5122
▁Egyptian	-5123
▁property	-5124
▁supplies	-5125
▁criticism	-5126
▁southwest	-5127
▁recognized	-5128
▁experienced	-5129
▁successfully	-5130
jo	-5131
ety	-5132
▁Gi	-5133
erts	-5134
rait	-5135
▁Mov	-5136
▁Rih	-5137
ersey	-5138
iable	-5139
isers	-5140
▁Sund	-5141
▁remn	-5142
▁virt	-5143
lywood	-5144
▁fresh	-5145
▁miner	-5146
▁Democr	-5147
▁Hamels	-5148
▁atmosp	-5149
▁deaths	-5150
▁rating	-5151
▁reform	-5152
▁severe	-5153
▁spring	-5154
▁Rihanna	-5155
▁briefly	-5156
▁serving	-5157
▁Imperial	-5158
▁agricult	-5159
▁declined	-5160
▁painting	-5161
▁purchased	-5162
▁facilities	-5163
▁publication	-5164
zo	-5165
ato	-5166
hat	-5167
lys	-5168
rig	-5169
set	-5170
▁AM	-5171
▁ec	-5172
aret	-5173
▁Mas	-5174
▁Men	-5175
▁bey	-5176
▁dim	-5177
▁pet	-5178
▁Also	-5179
▁Djed	-5180
▁Five	-5181
▁RAAF	-5182
▁Swed	-5183
▁fict	-5184
ibrary	-5185
unicip	-5186
wealth	-5187
▁Coast	-5188
▁comes	-5189
▁dates	-5190
▁negot	-5191
▁occas	-5192
▁poems	-5193
▁Daniel	-5194
▁Martin	-5195
▁People	-5196
▁choice	-5197
▁editor	-5198
▁slowly	-5199
▁theory	-5200
▁Between	-5201
▁Croatia	-5202
▁Mounted	-5203
▁selling	-5204
▁teacher	-5205
▁recently	-5206
▁regarded	-5207
▁effective	-5208
▁extensive	-5209
▁secondary	-5210
▁technique	-5211
▁Lieutenant	-5212
▁Revolution	-5213
▁description	-5214
▁Entertainment	-5215
ano	-5216
han	-5217
ube	-5218
iced	-5219
ules	-5220
▁fan	-5221
▁gas	-5222
▁mic	-5223
▁Rail	-5224
▁arms	-5225
▁farm	-5226
▁Today	-5227
▁armor	-5228
▁cited	-5229
▁gives	-5230
▁steel	-5231
▁theat	-5232
▁turns	-5233
espread	-5234
▁McCart	-5235
▁Summer	-5236
▁beyond	-5237
▁degree	-5238
▁stages	-5239
▁aspects	-5240
▁notable	-5241
▁Djedkare	-5242
▁creation	-5243
▁expanded	-5244
▁stations	-5245
▁collected	-5246
▁Philadelphia	-5247
ycl	-5248
▁Es	-5249
▁ru	-5250
rine	-5251
roph	-5252
▁Dun	-5253
▁Hib	-5254
▁Hon	-5255
▁fox	-5256
▁fur	-5257
▁isol	-5258
▁semi	-5259
iences	-5260
▁cells	-5261
▁Native	-5262
▁finals	-5263
▁silver	-5264
▁simple	-5265
▁cricket	-5266
▁engaged	-5267
▁executive	-5268
▁worldwide	-5269
▁protection	-5270
ias	-5271
ager	-5272
uate	-5273
▁Adv	-5274
▁Bru	-5275
▁Dev	-5276
▁Luc	-5277
▁bid	-5278
▁eth	-5279
▁pul	-5280
▁rac	-5281
idges	-5282
inate	-5283
white	-5284
▁Area	-5285
▁coal	-5286
▁gain	-5287
▁seat	-5288
▁tall	-5289
▁trip	-5290
▁clean	-5291
▁daily	-5292
▁phase	-5293
▁allows	-5294
▁oldest	-5295
▁arrival	-5296
▁billion	-5297
▁Governor	-5298
▁crossing	-5299
▁promotion	-5300
▁responded	-5301
▁treatment	-5302
▁unsuccess	-5303
ca	-5304
ez	-5305
ini	-5306
rak	-5307
▁CD	-5308
▁Id	-5309
▁Oh	-5310
aved	-5311
eton	-5312
fort	-5313
illo	-5314
imet	-5315
itan	-5316
ogen	-5317
▁Cle	-5318
▁Cre	-5319
▁Mic	-5320
▁Mot	-5321
▁WWE	-5322
ieval	-5323
reets	-5324
▁Band	-5325
▁Down	-5326
▁drop	-5327
graded	-5328
▁Liber	-5329
▁Steve	-5330
▁delay	-5331
▁finds	-5332
▁heard	-5333
▁males	-5334
▁molec	-5335
▁horses	-5336
▁philos	-5337
iversary	-5338
standing	-5339
▁Theatre	-5340
▁decades	-5341
▁protect	-5342
▁roughly	-5343
▁district	-5344
▁improved	-5345
▁Applewhite	-5346
▁parliament	-5347
hi	-5348
▁i	-5349
AFE	-5350
mit	-5351
rel	-5352
▁Fu	-5353
▁Jud	-5354
▁Jur	-5355
▁NBA	-5356
▁eas	-5357
itors	-5358
lying	-5359
▁Andy	-5360
▁Belg	-5361
▁Greg	-5362
▁SAFE	-5363
ivered	-5364
▁pound	-5365
▁Athlet	-5366
▁budget	-5367
▁headed	-5368
▁actress	-5369
▁filming	-5370
▁finding	-5371
▁focused	-5372
▁restaur	-5373
▁Festival	-5374
▁accident	-5375
▁planning	-5376
▁converted	-5377
▁gradually	-5378
▁Throughout	-5379
▁developing	-5380
▁Development	-5381
▁Commonwealth	-5382
OT	-5383
ía	-5384
aka	-5385
arp	-5386
ava	-5387
rog	-5388
rum	-5389
▁Lu	-5390
▁mo	-5391
assy	-5392
▁Alf	-5393
▁Dod	-5394
▁Obs	-5395
▁Rel	-5396
▁Rod	-5397
▁Ten	-5398
▁arc	-5399
▁fat	-5400
▁Hung	-5401
▁cool	-5402
▁Domin	-5403
▁Video	-5404
▁dance	-5405
▁steam	-5406
▁explos	-5407
▁stopped	-5408
▁turning	-5409
▁volunte	-5410
▁existing	-5411
▁governor	-5412
▁centuries	-5413
▁Production	-5414
▁classified	-5415
▁widespread	-5416
▁commissioned	-5417
▁intelligence	-5418
Le	-5419
ati	-5420
esh	-5421
inj	-5422
tav	-5423
anda	-5424
phib	-5425
▁aim	-5426
▁nor	-5427
icted	-5428
lines	-5429
▁Barb	-5430
▁Cold	-5431
▁Wind	-5432
▁eyes	-5433
▁tail	-5434
urches	-5435
▁Broad	-5436
▁arran	-5437
▁begun	-5438
▁burns	-5439
▁outer	-5440
eratops	-5441
▁prefer	-5442
▁street	-5443
ifically	-5444
▁neither	-5445
▁colonial	-5446
▁concrete	-5447
▁delivered	-5448
▁producers	-5449
▁receiving	-5450
SB	-5451
ym	-5452
cop	-5453
rier	-5454
▁egg	-5455
▁ton	-5456
ropol	-5457
▁Brig	-5458
▁Upon	-5459
▁What	-5460
▁dial	-5461
▁note	-5462
▁save	-5463
▁sole	-5464
▁Lewis	-5465
▁craft	-5466
▁stret	-5467
▁Barrow	-5468
▁finish	-5469
▁overse	-5470
▁undert	-5471
▁volume	-5472
▁Project	-5473
▁capable	-5474
▁contrib	-5475
▁deities	-5476
▁females	-5477
▁breeding	-5478
▁negative	-5479
ifications	-5480
▁dominated	-5481
▁sculpture	-5482
▁Mu	-5483
▁UB	-5484
yles	-5485
▁Jac	-5486
▁Mir	-5487
▁Row	-5488
▁ice	-5489
▁subt	-5490
weight	-5491
▁Keats	-5492
▁drawn	-5493
▁green	-5494
iations	-5495
▁Cambod	-5496
▁Nathan	-5497
▁escape	-5498
▁exclus	-5499
▁fellow	-5500
▁lasted	-5501
▁reserv	-5502
▁visual	-5503
▁express	-5504
▁Magazine	-5505
▁anything	-5506
▁distingu	-5507
▁resident	-5508
▁vehicles	-5509
▁accompanied	-5510
▁independence	-5511
▁introduction	-5512
sea	-5513
andy	-5514
kins	-5515
rell	-5516
▁Hor	-5517
▁Ron	-5518
▁rit	-5519
amese	-5520
iling	-5521
ingly	-5522
rence	-5523
ropri	-5524
▁Base	-5525
▁neck	-5526
▁tend	-5527
▁Board	-5528
▁Const	-5529
▁Dougl	-5530
▁decre	-5531
ections	-5532
▁Friend	-5533
▁adding	-5534
▁normal	-5535
▁trying	-5536
restling	-5537
▁adapted	-5538
▁charges	-5539
▁holding	-5540
▁Cardinal	-5541
▁computer	-5542
▁agreement	-5543
▁paintings	-5544
erc	-5545
▁mig	-5546
essed	-5547
▁Cook	-5548
▁Pers	-5549
▁data	-5550
▁fuel	-5551
▁rebu	-5552
▁rose	-5553
▁tree	-5554
angers	-5555
ewhere	-5556
ilding	-5557
▁Mario	-5558
▁hired	-5559
▁opera	-5560
▁tells	-5561
utation	-5562
▁bought	-5563
▁humans	-5564
▁serves	-5565
▁survey	-5566
▁surviv	-5567
▁viewed	-5568
ographic	-5569
▁crossed	-5570
▁encoura	-5571
▁nothing	-5572
▁strateg	-5573
▁violence	-5574
▁fictional	-5575
▁combination	-5576
▁possibility	-5577
isy	-5578
▁Ly	-5579
come	-5580
icks	-5581
▁Abu	-5582
▁Han	-5583
▁Low	-5584
▁rif	-5585
istan	-5586
▁Hard	-5587
▁Juan	-5588
▁Wall	-5589
▁calc	-5590
▁glob	-5591
▁trou	-5592
ighter	-5593
▁Chart	-5594
▁Color	-5595
▁Crown	-5596
▁acres	-5597
▁faith	-5598
▁labor	-5599
▁train	-5600
borough	-5601
respond	-5602
cription	-5603
▁Colonel	-5604
▁captain	-5605
▁closely	-5606
▁disturb	-5607
▁learned	-5608
▁reasons	-5609
▁survived	-5610
▁existence	-5611
▁Vietnamese	-5612
▁importance	-5613
▁composition	-5614
▁underground	-5615
▁NH	-5616
abil	-5617
aire	-5618
aver	-5619
rupt	-5620
then	-5621
▁Sus	-5622
▁cem	-5623
opher	-5624
▁Late	-5625
▁Marc	-5626
▁Songs	-5627
▁carry	-5628
▁thing	-5629
▁Walter	-5630
▁castle	-5631
▁owners	-5632
▁resist	-5633
▁stream	-5634
▁Islands	-5635
▁decline	-5636
▁perhaps	-5637
▁consists	-5638
▁instruct	-5639
▁provides	-5640
▁sections	-5641
▁substant	-5642
▁involvement	-5643
▁intersection	-5644
uli	-5645
▁IG	-5646
irls	-5647
sych	-5648
▁Ari	-5649
▁Bor	-5650
▁Cub	-5651
▁Det	-5652
▁Joe	-5653
▁Lee	-5654
▁Pho	-5655
▁UTC	-5656
▁aer	-5657
▁emp	-5658
▁opt	-5659
erted	-5660
▁didn	-5661
▁door	-5662
▁mush	-5663
▁pros	-5664
▁wins	-5665
illing	-5666
▁Kersh	-5667
▁agent	-5668
▁decor	-5669
iration	-5670
▁Arthur	-5671
▁chorus	-5672
▁cougar	-5673
▁routes	-5674
▁Instead	-5675
▁Studios	-5676
▁accompl	-5677
▁airport	-5678
▁defined	-5679
▁details	-5680
▁enjoyed	-5681
▁missing	-5682
▁nucleus	-5683
▁programs	-5684
▁shooting	-5685
▁Commander	-5686
▁Committee	-5687
▁commanded	-5688
▁household	-5689
▁storyline	-5690
▁performing	-5691
hm	-5692
arm	-5693
sey	-5694
chen	-5695
eman	-5696
▁Nap	-5697
▁Ray	-5698
▁enl	-5699
▁why	-5700
hetic	-5701
▁Braz	-5702
▁Type	-5703
▁bats	-5704
▁hill	-5705
▁laws	-5706
▁ster	-5707
ooking	-5708
▁drama	-5709
▁items	-5710
▁ruled	-5711
▁Mendes	-5712
▁landed	-5713
▁Douglas	-5714
▁Kershaw	-5715
▁evening	-5716
▁longest	-5717
▁massive	-5718
▁purpose	-5719
▁Francisc	-5720
▁athletes	-5721
▁repeated	-5722
▁surviving	-5723
▁transform	-5724
onnaissance	-5725
▁consisting	-5726
▁temnospondyls	-5727
▁archaeological	-5728
AA	-5729
war	-5730
itiz	-5731
▁Win	-5732
▁sle	-5733
▁som	-5734
acity	-5735
▁Kenn	-5736
▁Snow	-5737
▁firm	-5738
▁ways	-5739
▁Haven	-5740
▁Ridge	-5741
▁calls	-5742
▁caught	-5743
▁decade	-5744
▁leaves	-5745
▁propos	-5746
▁Marines	-5747
▁Stadium	-5748
▁earthqu	-5749
▁fashion	-5750
▁islands	-5751
▁synthes	-5752
▁attached	-5753
▁deployed	-5754
▁interior	-5755
▁correspond	-5756
▁interchange	-5757
uma	-5758
vis	-5759
āda	-5760
gers	-5761
iful	-5762
▁Aer	-5763
▁Rol	-5764
▁Baby	-5765
▁Rick	-5766
▁Surv	-5767
▁drew	-5768
▁lane	-5769
▁myth	-5770
▁tomb	-5771
imeter	-5772
▁beach	-5773
▁moder	-5774
▁penal	-5775
▁pilot	-5776
▁views	-5777
▁assemb	-5778
▁sector	-5779
entially	-5780
▁Shortly	-5781
▁Special	-5782
▁Turkish	-5783
▁contest	-5784
▁renamed	-5785
▁memorial	-5786
▁sentence	-5787
▁settlers	-5788
▁permanent	-5789
▁dissipated	-5790
▁opportunity	-5791
▁Thunderbirds	-5792
lik	-5793
amin	-5794
apes	-5795
hess	-5796
icop	-5797
iege	-5798
achus	-5799
etery	-5800
iston	-5801
▁Arts	-5802
▁Chel	-5803
▁Conn	-5804
▁Free	-5805
▁Nick	-5806
edding	-5807
iminal	-5808
▁Boise	-5809
▁Marsh	-5810
▁Space	-5811
▁categ	-5812
▁moves	-5813
▁rural	-5814
▁secure	-5815
▁select	-5816
▁symbol	-5817
▁Premier	-5818
▁conspir	-5819
▁digital	-5820
▁reconst	-5821
▁opposition	-5822
▁populations	-5823
ii	-5824
la	-5825
eda	-5826
osa	-5827
▁ha	-5828
elli	-5829
otes	-5830
yson	-5831
▁Rox	-5832
▁cho	-5833
▁Bern	-5834
▁Leon	-5835
▁Life	-5836
▁impr	-5837
▁knew	-5838
▁ones	-5839
▁skin	-5840
iously	-5841
▁Chief	-5842
▁Crazy	-5843
▁benef	-5844
▁store	-5845
▁towns	-5846
▁Albert	-5847
▁Golden	-5848
▁expans	-5849
▁filled	-5850
▁Emperor	-5851
▁derived	-5852
▁invited	-5853
▁journey	-5854
▁churches	-5855
▁missions	-5856
▁protagon	-5857
▁supposed	-5858
▁committee	-5859
▁locations	-5860
▁providing	-5861
▁convection	-5862
▁sufficient	-5863
▁association	-5864
▁Additionally	-5865
▁establishment	-5866
▁administration	-5867
RE	-5868
▁Ye	-5869
elve	-5870
okes	-5871
rist	-5872
usal	-5873
▁Bly	-5874
▁Gab	-5875
▁dry	-5876
▁obt	-5877
▁sun	-5878
idden	-5879
iders	-5880
ublin	-5881
▁Beck	-5882
▁Bono	-5883
▁Isab	-5884
▁sort	-5885
ipping	-5886
▁About	-5887
▁Anton	-5888
▁Sound	-5889
▁clubs	-5890
▁hydro	-5891
▁knots	-5892
▁youth	-5893
uration	-5894
▁Within	-5895
▁branch	-5896
▁shared	-5897
▁Science	-5898
▁applied	-5899
▁article	-5900
▁coastal	-5901
▁dynasty	-5902
▁economy	-5903
▁greatly	-5904
▁replace	-5905
▁Director	-5906
▁depicted	-5907
▁speaking	-5908
▁Hollywood	-5909
▁finishing	-5910
▁regarding	-5911
▁succeeded	-5912
▁surrender	-5913
▁conference	-5914
▁replacement	-5915
aws	-5916
err	-5917
▁la	-5918
acon	-5919
▁Age	-5920
▁Jay	-5921
▁MTV	-5922
▁Mid	-5923
▁Sor	-5924
▁bat	-5925
▁fer	-5926
▁fil	-5927
▁ign	-5928
▁san	-5929
apers	-5930
chers	-5931
ilton	-5932
regon	-5933
▁deck	-5934
▁soft	-5935
▁tied	-5936
▁vert	-5937
▁zone	-5938
▁Jones	-5939
▁Offic	-5940
▁Radio	-5941
▁Santa	-5942
▁glass	-5943
▁joint	-5944
▁spons	-5945
▁table	-5946
stances	-5947
▁Brazil	-5948
▁Doctor	-5949
▁dating	-5950
▁motion	-5951
▁Attorney	-5952
▁Colorado	-5953
▁Military	-5954
▁acquired	-5955
▁antimony	-5956
▁historic	-5957
▁certified	-5958
▁producing	-5959
▁remainder	-5960
▁successor	-5961
▁considerable	-5962
AG	-5963
eld	-5964
omp	-5965
pty	-5966
ánh	-5967
▁Si	-5968
agre	-5969
anny	-5970
mann	-5971
ture	-5972
▁IGN	-5973
▁Ira	-5974
▁Vol	-5975
▁flu	-5976
▁hyp	-5977
▁Jain	-5978
▁Kang	-5979
▁crop	-5980
engers	-5981
▁Maria	-5982
▁exact	-5983
▁urban	-5984
assador	-5985
▁Blythe	-5986
▁Butler	-5987
▁Dublin	-5988
▁Oregon	-5989
▁Sunday	-5990
▁chapel	-5991
▁courts	-5992
▁favour	-5993
▁underw	-5994
▁Anthony	-5995
▁Charlie	-5996
▁Similar	-5997
▁helicop	-5998
▁receive	-5999
▁baseball	-6000
▁champion	-6001
▁concerns	-6002
▁entering	-6003
▁assistance	-6004
▁historians	-6005
SA	-6006
eor	-6007
▁ML	-6008
host	-6009
idae	-6010
opes	-6011
▁Cop	-6012
▁Hin	-6013
▁Igu	-6014
▁mut	-6015
▁unp	-6016
attle	-6017
ichol	-6018
▁Bert	-6019
▁Fire	-6020
▁arts	-6021
▁shel	-6022
▁stem	-6023
ranean	-6024
▁Brian	-6025
▁Evita	-6026
▁aware	-6027
▁initi	-6028
▁truth	-6029
imental	-6030
▁Howard	-6031
▁chance	-6032
▁commit	-6033
▁speech	-6034
▁funding	-6035
▁getting	-6036
sequently	-6037
▁Croatian	-6038
▁protected	-6039
▁technical	-6040
▁technology	-6041
ba	-6042
die	-6043
▁od	-6044
rets	-6045
▁Jes	-6046
▁dru	-6047
▁rob	-6048
▁rub	-6049
▁von	-6050
break	-6051
itled	-6052
ribed	-6053
▁Gram	-6054
▁Hell	-6055
▁Lenn	-6056
▁acid	-6057
▁cold	-6058
▁goes	-6059
▁plum	-6060
▁Jamal	-6061
▁Khánh	-6062
▁MacLe	-6063
▁cloud	-6064
▁comic	-6065
▁teeth	-6066
▁tries	-6067
▁verte	-6068
theless	-6069
▁colour	-6070
▁legend	-6071
▁authors	-6072
▁flights	-6073
▁reserve	-6074
▁transit	-6075
▁arranged	-6076
▁Transport	-6077
▁attacking	-6078
edom	-6079
ells	-6080
ibbe	-6081
pton	-6082
rant	-6083
▁Hit	-6084
▁Liu	-6085
▁Sha	-6086
▁dog	-6087
▁lob	-6088
▁sud	-6089
▁vic	-6090
aware	-6091
eless	-6092
▁Alan	-6093
▁Corn	-6094
encies	-6095
▁Heavy	-6096
▁Phill	-6097
▁Point	-6098
▁altar	-6099
▁meets	-6100
entions	-6101
▁Freder	-6102
▁ancest	-6103
▁denied	-6104
▁resour	-6105
▁Stephen	-6106
▁correct	-6107
▁opinion	-6108
▁watched	-6109
▁Tennyson	-6110
▁download	-6111
▁downtown	-6112
▁literary	-6113
▁Alexander	-6114
▁foundation	-6115
▁controversy	-6116
▁occasionally	-6117
▁characteristics	-6118
amy	-6119
▁GA	-6120
▁IV	-6121
agle	-6122
ears	-6123
pson	-6124
rake	-6125
▁Ali	-6126
▁Run	-6127
▁Top	-6128
▁cab	-6129
▁dub	-6130
▁hat	-6131
borne	-6132
▁Iraq	-6133
▁Marl	-6134
▁cong	-6135
▁fair	-6136
▁rich	-6137
▁Homer	-6138
▁immig	-6139
▁pitch	-6140
▁split	-6141
ivalent	-6142
▁dollar	-6143
▁firing	-6144
▁powers	-6145
▁valley	-6146
▁channel	-6147
▁chapter	-6148
▁showing	-6149
▁typhoon	-6150
▁typical	-6151
▁capacity	-6152
▁examples	-6153
▁politics	-6154
▁terminus	-6155
▁strengthen	-6156
agn	-6157
▁Ak	-6158
▁Bi	-6159
adow	-6160
iece	-6161
nest	-6162
osis	-6163
▁Ing	-6164
▁tal	-6165
onder	-6166
state	-6167
▁Walk	-6168
▁Wars	-6169
▁jack	-6170
▁mine	-6171
▁Iguan	-6172
▁Simon	-6173
▁exerc	-6174
▁motor	-6175
▁Simone	-6176
▁Spring	-6177
▁circum	-6178
▁extrem	-6179
▁facing	-6180
▁fields	-6181
▁launch	-6182
▁safety	-6183
▁habitat	-6184
▁inhabit	-6185
▁Columbia	-6186
▁commemor	-6187
▁maintain	-6188
▁portrayed	-6189
▁department	-6190
▁everything	-6191
▁generation	-6192
▁references	-6193
▁reputation	-6194
▁responsibility	-6195
ta	-6196
ban	-6197
min	-6198
oly	-6199
▁py	-6200
adal	-6201
ardo	-6202
▁Inc	-6203
▁Rem	-6204
▁Roy	-6205
▁Tam	-6206
▁din	-6207
▁corp	-6208
▁hits	-6209
▁vary	-6210
▁Loren	-6211
▁crime	-6212
▁quite	-6213
▁solid	-6214
▁Modern	-6215
▁detail	-6216
▁noting	-6217
▁offers	-6218
▁Caribbe	-6219
▁MacLeod	-6220
▁address	-6221
▁embassy	-6222
▁retreat	-6223
▁someone	-6224
▁credited	-6225
▁gameplay	-6226
▁measures	-6227
▁discovery	-6228
▁recovered	-6229
▁thousands	-6230
▁Depression	-6231
▁attributed	-6232
▁destroyers	-6233
▁industrial	-6234
▁instrument	-6235
▁revolution	-6236
▁specifically	-6237
ān	-6238
aza	-6239
mod	-6240
▁Ts	-6241
▁ju	-6242
▁Bat	-6243
▁Cas	-6244
▁Gil	-6245
▁Hun	-6246
▁Sav	-6247
▁flo	-6248
▁lov	-6249
allow	-6250
eenth	-6251
going	-6252
▁Here	-6253
▁Holy	-6254
▁Stew	-6255
▁Tetr	-6256
▁Ulys	-6257
▁shut	-6258
estone	-6259
intend	-6260
raltar	-6261
ussion	-6262
▁Brook	-6263
▁Perry	-6264
▁accur	-6265
▁crown	-6266
▁gross	-6267
▁leads	-6268
▁squad	-6269
▁worst	-6270
▁worth	-6271
▁Chains	-6272
▁Nether	-6273
▁Square	-6274
▁occurs	-6275
▁patron	-6276
▁plants	-6277
▁wealth	-6278
▁window	-6279
unicipal	-6280
▁Ulysses	-6281
▁vessels	-6282
▁younger	-6283
▁carrying	-6284
▁Caribbean	-6285
▁Gibraltar	-6286
▁Secretary	-6287
▁discussed	-6288
▁separated	-6289
▁continuing	-6290
▁recognition	-6291
▁competitions	-6292
ns	-6293
agu	-6294
tty	-6295
▁Ay	-6296
avia	-6297
eper	-6298
iffe	-6299
know	-6300
▁Edu	-6301
▁Moz	-6302
▁bal	-6303
▁lit	-6304
agues	-6305
amber	-6306
ients	-6307
▁Duke	-6308
▁card	-6309
▁flat	-6310
▁pool	-6311
ceived	-6312
▁Daily	-6313
▁inner	-6314
▁psych	-6315
▁rules	-6316
▁shore	-6317
▁veget	-6318
▁Archae	-6319
▁Jersey	-6320
▁Master	-6321
▁Senate	-6322
▁franch	-6323
▁erected	-6324
▁penalty	-6325
▁studied	-6326
▁Critical	-6327
▁Historic	-6328
▁Hospital	-6329
▁indicate	-6330
▁committed	-6331
▁dismissed	-6332
▁opponents	-6333
▁predecess	-6334
▁approached	-6335
▁describing	-6336
▁difficulty	-6337
▁earthquake	-6338
▁constitution	-6339
oh	-6340
aked	-6341
erva	-6342
▁Imp	-6343
▁Mah	-6344
▁Ode	-6345
▁Rio	-6346
▁fit	-6347
ician	-6348
ivals	-6349
▁Chan	-6350
▁Show	-6351
▁thin	-6352
inking	-6353
▁Aston	-6354
▁Campb	-6355
▁Pagan	-6356
▁Starr	-6357
▁Story	-6358
▁apart	-6359
▁basic	-6360
▁basin	-6361
▁demol	-6362
▁rhyth	-6363
ossible	-6364
ountain	-6365
rations	-6366
▁Around	-6367
▁Forces	-6368
▁Person	-6369
▁aftern	-6370
▁amphib	-6371
▁astron	-6372
▁convoy	-6373
▁duties	-6374
▁eighth	-6375
▁hosted	-6376
▁picked	-6377
▁sudden	-6378
▁winner	-6379
▁Hornung	-6380
▁accused	-6381
▁creator	-6382
▁crosses	-6383
▁methods	-6384
▁Georgian	-6385
▁Olympics	-6386
▁academic	-6387
▁brothers	-6388
▁ceremony	-6389
▁Anonymous	-6390
▁Recording	-6391
▁attempting	-6392
▁designation	-6393
▁recommended	-6394
▁organizations	-6395
zz	-6396
aga	-6397
oba	-6398
rec	-6399
var	-6400
▁Wy	-6401
orer	-6402
▁AML	-6403
▁lic	-6404
▁unn	-6405
▁van	-6406
ender	-6407
istol	-6408
othes	-6409
psons	-6410
▁Less	-6411
▁fant	-6412
▁frig	-6413
▁hang	-6414
aments	-6415
▁camps	-6416
▁blocks	-6417
▁charts	-6418
▁desire	-6419
▁manner	-6420
▁missed	-6421
▁regime	-6422
▁Chelsea	-6423
▁Fantasy	-6424
▁dollars	-6425
▁emerged	-6426
▁reality	-6427
▁secured	-6428
▁starred	-6429
stitution	-6430
▁Memorial	-6431
▁Simpsons	-6432
▁Township	-6433
▁believes	-6434
▁favorite	-6435
▁isolated	-6436
▁retained	-6437
▁strongly	-6438
▁Francisco	-6439
▁appearing	-6440
▁challenge	-6441
▁divisions	-6442
▁exception	-6443
▁extremely	-6444
▁philosoph	-6445
▁statement	-6446
▁Television	-6447
▁atmosphere	-6448
▁interested	-6449
▁leadership	-6450
▁battleships	-6451
gé	-6452
key	-6453
nic	-6454
oca	-6455
rif	-6456
uri	-6457
aton	-6458
nell	-6459
ooth	-6460
▁Amb	-6461
▁Cru	-6462
▁gal	-6463
ensus	-6464
inger	-6465
▁Dota	-6466
▁Fame	-6467
▁Gore	-6468
▁Kurt	-6469
▁outf	-6470
orters	-6471
▁Order	-6472
▁Organ	-6473
▁Phoen	-6474
▁advis	-6475
▁alleg	-6476
▁conqu	-6477
▁holds	-6478
▁pregn	-6479
igation	-6480
▁convin	-6481
▁inland	-6482
▁rarely	-6483
▁stands	-6484
▁stones	-6485
▁thirty	-6486
▁tribes	-6487
▁Patrick	-6488
▁unusual	-6489
▁wedding	-6490
▁Tetrarch	-6491
▁accounts	-6492
▁breaking	-6493
▁diameter	-6494
▁equipped	-6495
▁parallel	-6496
▁province	-6497
▁superior	-6498
▁Cambridge	-6499
▁afternoon	-6500
▁assistant	-6501
▁highlight	-6502
▁ironclads	-6503
▁operating	-6504
▁principal	-6505
▁intensified	-6506
VN	-6507
aft	-6508
aya	-6509
zen	-6510
▁Di	-6511
▁Ec	-6512
▁eu	-6513
elly	-6514
pret	-6515
▁Ald	-6516
▁Kat	-6517
▁Kil	-6518
▁bes	-6519
▁ble	-6520
▁fal	-6521
iplom	-6522
organ	-6523
▁Desc	-6524
▁Disc	-6525
▁Jenn	-6526
▁Patt	-6527
▁Plot	-6528
▁doct	-6529
▁fish	-6530
▁prey	-6531
▁shif	-6532
cement	-6533
▁Elect	-6534
▁Haiti	-6535
▁Hindu	-6536
▁Maeda	-6537
▁Prime	-6538
▁Track	-6539
▁overw	-6540
▁shots	-6541
▁Hibari	-6542
▁Romani	-6543
▁carved	-6544
▁covers	-6545
▁Madonna	-6546
▁Station	-6547
▁Writing	-6548
▁forests	-6549
▁passage	-6550
▁victims	-6551
▁Engineer	-6552
▁Hamilton	-6553
▁criminal	-6554
▁defended	-6555
▁obtained	-6556
▁regional	-6557
▁reviewer	-6558
▁teaching	-6559
▁Mountains	-6560
▁intention	-6561
▁expedition	-6562
▁nomination	-6563
▁Constantine	-6564
▁anniversary	-6565
LI	-6566
ét	-6567
evo	-6568
gie	-6569
ois	-6570
ori	-6571
▁NC	-6572
anth	-6573
oked	-6574
real	-6575
ruli	-6576
wise	-6577
yard	-6578
▁Cam	-6579
▁die	-6580
▁nob	-6581
▁sym	-6582
abled	-6583
ables	-6584
acent	-6585
ateur	-6586
earch	-6587
ockey	-6588
oming	-6589
senal	-6590
▁Gang	-6591
▁baby	-6592
▁bond	-6593
▁gall	-6594
▁puzz	-6595
▁subs	-6596
atures	-6597
glades	-6598
▁Beach	-6599
▁Qedar	-6600
▁Venus	-6601
▁entry	-6602
▁verse	-6603
▁watch	-6604
attered	-6605
ception	-6606
istered	-6607
▁Queens	-6608
▁Sports	-6609
▁partly	-6610
▁pushed	-6611
▁retire	-6612
▁seeing	-6613
▁settle	-6614
▁vision	-6615
▁Friends	-6616
▁Rangers	-6617
▁classes	-6618
▁improve	-6619
▁spacing	-6620
▁theatre	-6621
▁visible	-6622
achusetts	-6623
▁Industry	-6624
▁approved	-6625
▁medieval	-6626
▁remnants	-6627
▁Peninsula	-6628
▁attracted	-6629
▁immediate	-6630
▁passengers	-6631
▁transition	-6632
▁Massachusetts	-6633
ext	-6634
▁Ré	-6635
▁ic	-6636
body	-6637
lete	-6638
quez	-6639
ucky	-6640
▁Abb	-6641
▁Pot	-6642
osure	-6643
point	-6644
▁Cape	-6645
▁Eliz	-6646
▁Oslo	-6647
▁Trib	-6648
▁mart	-6649
▁wick	-6650
ultane	-6651
▁Front	-6652
▁Roger	-6653
▁equal	-6654
▁hotel	-6655
▁indig	-6656
ogether	-6657
▁Unlike	-6658
▁Weekly	-6659
▁fitted	-6660
▁income	-6661
▁twelve	-6662
▁Chronic	-6663
▁Singles	-6664
▁parties	-6665
▁proceed	-6666
▁session	-6667
▁whereas	-6668
▁admitted	-6669
▁defences	-6670
▁electric	-6671
▁ironclad	-6672
▁Iguanodon	-6673
▁survivors	-6674
▁Republican	-6675
▁Independent	-6676
▁reconnaissance	-6677
FC	-6678
ASA	-6679
aug	-6680
ima	-6681
lan	-6682
▁CB	-6683
▁Tu	-6684
amar	-6685
anti	-6686
cles	-6687
fare	-6688
imal	-6689
isis	-6690
math	-6691
ocal	-6692
▁Ash	-6693
▁nav	-6694
▁sed	-6695
▁upd	-6696
acked	-6697
aurus	-6698
ewhat	-6699
worth	-6700
▁Chen	-6701
▁none	-6702
▁util	-6703
cliffe	-6704
▁Hotel	-6705
▁plain	-6706
pective	-6707
▁Mongol	-6708
▁Samuel	-6709
▁acknow	-6710
▁gather	-6711
▁rescue	-6712
▁seemed	-6713
▁Mediter	-6714
▁Rolling	-6715
▁convers	-6716
▁driving	-6717
▁falling	-6718
▁feeling	-6719
▁offense	-6720
▁painted	-6721
▁promote	-6722
▁returns	-6723
▁Bradford	-6724
▁arrested	-6725
▁civilian	-6726
▁withdrew	-6727
▁Frederick	-6728
▁expansion	-6729
▁publisher	-6730
▁suffering	-6731
▁completion	-6732
▁connection	-6733
▁arrangement	-6734
▁communities	-6735
▁distribution	-6736
▁Mediterranean	-6737
OC	-6738
va	-6739
wa	-6740
bur	-6741
rast	-6742
uses	-6743
▁Anc	-6744
▁DNA	-6745
▁Hug	-6746
▁cul	-6747
▁vac	-6748
abeth	-6749
eline	-6750
onica	-6751
scape	-6752
verse	-6753
▁Fish	-6754
▁Init	-6755
▁Main	-6756
▁Pict	-6757
▁cart	-6758
▁legs	-6759
▁vide	-6760
▁warm	-6761
urrent	-6762
usalem	-6763
▁Death	-6764
▁Gully	-6765
▁Human	-6766
▁Roxas	-6767
▁brick	-6768
▁cinem	-6769
▁depos	-6770
▁drums	-6771
▁frame	-6772
▁ninth	-6773
▁oppos	-6774
▁races	-6775
▁rugby	-6776
▁shear	-6777
▁Territ	-6778
▁carbon	-6779
▁closer	-6780
▁preced	-6781
angerous	-6782
▁Lorenzo	-6783
▁Montana	-6784
▁charter	-6785
▁signing	-6786
▁Maryland	-6787
▁Morrison	-6788
▁mushroom	-6789
▁Jerusalem	-6790
▁emotional	-6791
▁followers	-6792
▁implement	-6793
▁indicated	-6794
▁regularly	-6795
▁specimens	-6796
▁Everglades	-6797
▁threatened	-6798
dal	-6799
urd	-6800
amps	-6801
bles	-6802
hews	-6803
rage	-6804
▁Jun	-6805
▁Lab	-6806
▁Lev	-6807
▁Mul	-6808
▁NBC	-6809
▁Pan	-6810
▁Sup	-6811
▁Tel	-6812
▁orn	-6813
▁pup	-6814
▁rum	-6815
▁ske	-6816
inson	-6817
using	-6818
▁Bank	-6819
▁Maya	-6820
▁Sher	-6821
▁Stef	-6822
▁Truj	-6823
▁anth	-6824
▁eggs	-6825
▁hear	-6826
▁impl	-6827
ctions	-6828
▁Adams	-6829
▁Eddie	-6830
▁Nerva	-6831
▁Power	-6832
▁coord	-6833
▁marks	-6834
▁noisy	-6835
▁wrong	-6836
iveness	-6837
▁Somali	-6838
▁easily	-6839
▁treaty	-6840
▁Georgia	-6841
▁assumed	-6842
▁collaps	-6843
▁pointed	-6844
▁scholar	-6845
▁partners	-6846
▁somewhat	-6847
▁monuments	-6848
▁alternative	-6849
▁circulation	-6850
▁controversial	-6851
ni	-6852
igg	-6853
oli	-6854
▁CE	-6855
amic	-6856
iary	-6857
oral	-6858
rien	-6859
▁bay	-6860
▁map	-6861
itals	-6862
lease	-6863
▁Pope	-6864
▁Prof	-6865
▁aged	-6866
▁gard	-6867
▁hall	-6868
▁nick	-6869
▁soil	-6870
rapped	-6871
▁Angle	-6872
▁absor	-6873
▁enfor	-6874
▁stead	-6875
▁strip	-6876
intendo	-6877
▁Mozamb	-6878
▁armour	-6879
▁camera	-6880
▁debate	-6881
▁driven	-6882
▁novels	-6883
▁posted	-6884
▁shells	-6885
▁streak	-6886
▁taught	-6887
entional	-6888
▁Roberts	-6889
▁drawing	-6890
▁forcing	-6891
▁monarch	-6892
▁worship	-6893
▁Nintendo	-6894
▁Trujillo	-6895
▁purchase	-6896
▁romantic	-6897
▁franchise	-6898
▁involving	-6899
▁surrounded	-6900
▁destruction	-6901
▁documentary	-6902
▁institutions	-6903
ker	-6904
ris	-6905
▁ur	-6906
aska	-6907
emed	-6908
lets	-6909
rich	-6910
▁ISB	-6911
▁Nar	-6912
▁USS	-6913
▁bed	-6914
icate	-6915
icide	-6916
orous	-6917
range	-6918
▁Bang	-6919
▁Flow	-6920
▁Hong	-6921
▁Jean	-6922
▁Owen	-6923
▁Rain	-6924
▁Shak	-6925
▁exha	-6926
▁fled	-6927
▁hope	-6928
▁jazz	-6929
▁snow	-6930
itated	-6931
itsune	-6932
▁Harry	-6933
▁Third	-6934
▁badly	-6935
▁bones	-6936
▁catch	-6937
▁citiz	-6938
▁dream	-6939
▁faces	-6940
▁ocean	-6941
▁pyram	-6942
▁voted	-6943
autiful	-6944
cements	-6945
▁Carter	-6946
▁Castle	-6947
▁Flight	-6948
▁depend	-6949
▁diplom	-6950
▁divers	-6951
▁estate	-6952
▁fungus	-6953
▁medium	-6954
▁sequel	-6955
▁stayed	-6956
▁storms	-6957
munition	-6958
▁Aniston	-6959
▁existed	-6960
▁railway	-6961
▁stadium	-6962
▁bringing	-6963
▁concerts	-6964
▁Argentina	-6965
▁Rhodesian	-6966
▁candidate	-6967
▁installed	-6968
▁submarine	-6969
▁restaurant	-6970
▁territories	-6971
▁unsuccessful	-6972
amm	-6973
▁AR	-6974
▁DC	-6975
iday	-6976
otic	-6977
rees	-6978
▁Bos	-6979
▁Cab	-6980
▁Div	-6981
▁Dur	-6982
▁Hay	-6983
▁Rom	-6984
▁Sap	-6985
▁Tig	-6986
▁tie	-6987
iform	-6988
▁Beat	-6989
▁ISBN	-6990
▁Lisa	-6991
▁fold	-6992
▁pric	-6993
▁spin	-6994
bishop	-6995
enburg	-6996
▁Danny	-6997
▁Korea	-6998
▁Plunk	-6999
▁Prior	-7000
▁Sonic	-7001
▁hoped	-7002
▁limit	-7003
▁multi	-7004
▁skull	-7005
▁wants	-7006
claimed	-7007
▁Design	-7008
▁Lennon	-7009
▁consum	-7010
▁linked	-7011
▁reduce	-7012
▁classic	-7013
▁consult	-7014
▁message	-7015
▁partial	-7016
▁proport	-7017
▁settled	-7018
▁Isabella	-7019
▁accommod	-7020
▁entitled	-7021
▁recalled	-7022
▁traveled	-7023
▁concerned	-7024
▁extension	-7025
▁partially	-7026
▁preserved	-7027
▁Activision	-7028
▁ammunition	-7029
▁distributed	-7030
kh	-7031
apa	-7032
apse	-7033
weet	-7034
▁Ken	-7035
▁USD	-7036
▁VII	-7037
ashed	-7038
ennis	-7039
▁Earl	-7040
▁Fair	-7041
▁Kong	-7042
▁Ryan	-7043
▁dock	-7044
▁grav	-7045
▁page	-7046
▁sulf	-7047
▁tone	-7048
inally	-7049
offman	-7050
rative	-7051
ternal	-7052
▁Naval	-7053
▁Tower	-7054
▁kings	-7055
▁recre	-7056
▁recru	-7057
▁renew	-7058
▁Branch	-7059
▁Player	-7060
▁Strand	-7061
▁bright	-7062
▁Calvert	-7063
▁Federal	-7064
▁Germans	-7065
▁bombard	-7066
▁context	-7067
▁designs	-7068
▁footage	-7069
▁injured	-7070
▁ratings	-7071
▁treated	-7072
▁covering	-7073
▁products	-7074
▁relative	-7075
▁songwrit	-7076
▁upgraded	-7077
▁programme	-7078
▁resources	-7079
▁possession	-7080
▁effectively	-7081
▁engineering	-7082
▁Construction	-7083
▁agricultural	-7084
▁investigation	-7085
AC	-7086
bb	-7087
gra	-7088
sch	-7089
▁et	-7090
onia	-7091
▁Hud	-7092
▁Pul	-7093
▁els	-7094
▁gro	-7095
ajevo	-7096
arked	-7097
itian	-7098
▁Lanc	-7099
▁acts	-7100
▁alle	-7101
▁answ	-7102
▁loan	-7103
▁sell	-7104
▁tick	-7105
arning	-7106
cation	-7107
teenth	-7108
▁Stock	-7109
▁Where	-7110
▁funds	-7111
▁happy	-7112
▁loyal	-7113
▁plane	-7114
▁releg	-7115
▁Beauty	-7116
▁Kansas	-7117
▁Muslim	-7118
▁escort	-7119
▁refers	-7120
▁serial	-7121
▁Somalia	-7122
▁cruiser	-7123
▁degrees	-7124
▁engines	-7125
▁orchest	-7126
▁streets	-7127
▁wearing	-7128
▁Research	-7129
▁Sarajevo	-7130
▁chemical	-7131
▁colonies	-7132
▁identity	-7133
▁meetings	-7134
▁overseas	-7135
▁protests	-7136
▁classical	-7137
▁elsewhere	-7138
▁interpret	-7139
▁reviewers	-7140
▁victories	-7141
▁apparently	-7142
▁resistance	-7143
▁Netherlands	-7144
▁inspiration	-7145
▁incorporated	-7146
iy	-7147
oom	-7148
yer	-7149
▁Sa	-7150
▁Ur	-7151
▁Ut	-7152
▁au	-7153
iour	-7154
rose	-7155
rows	-7156
uchi	-7157
udes	-7158
wich	-7159
▁Bal	-7160
▁Gun	-7161
▁Jif	-7162
▁Kaw	-7163
▁Now	-7164
▁Sab	-7165
▁Who	-7166
enses	-7167
ensis	-7168
inton	-7169
night	-7170
union	-7171
▁Cult	-7172
▁Fern	-7173
▁Test	-7174
▁Vice	-7175
▁belt	-7176
▁blow	-7177
▁bone	-7178
▁fine	-7179
▁sees	-7180
ellite	-7181
▁Blood	-7182
▁Treat	-7183
▁agree	-7184
▁europ	-7185
▁merch	-7186
▁relie	-7187
▁satis	-7188
ignment	-7189
vention	-7190
▁Norman	-7191
▁elabor	-7192
▁looked	-7193
▁lowest	-7194
▁prohib	-7195
▁rhythm	-7196
▁videos	-7197
▁Destiny	-7198
▁Stanley	-7199
▁absence	-7200
▁armored	-7201
▁chronic	-7202
▁exposed	-7203
▁reveals	-7204
▁Veronica	-7205
▁Yankovic	-7206
▁changing	-7207
▁detailed	-7208
▁learning	-7209
▁modified	-7210
▁generated	-7211
▁occasions	-7212
▁equivalent	-7213
▁impossible	-7214
▁relationships	-7215
agi	-7216
bra	-7217
hol	-7218
uda	-7219
wan	-7220
▁ow	-7221
agas	-7222
arth	-7223
▁Bad	-7224
▁Die	-7225
▁Nak	-7226
▁Ton	-7227
▁ash	-7228
▁ban	-7229
▁ray	-7230
chang	-7231
otton	-7232
ureau	-7233
▁Adam	-7234
▁Comb	-7235
▁Dark	-7236
▁Pass	-7237
▁Your	-7238
▁dens	-7239
▁lies	-7240
▁repr	-7241
▁Islam	-7242
▁Labor	-7243
▁Rugby	-7244
▁moral	-7245
▁sight	-7246
▁Donald	-7247
▁adults	-7248
▁burned	-7249
▁divine	-7250
▁Beckham	-7251
▁alleged	-7252
▁congreg	-7253
▁extreme	-7254
▁offices	-7255
▁tribute	-7256
▁Clarkson	-7257
▁appropri	-7258
▁challeng	-7259
▁exchange	-7260
▁minister	-7261
▁opposite	-7262
▁restored	-7263
▁westward	-7264
▁Victorian	-7265
▁languages	-7266
▁practices	-7267
▁requested	-7268
▁selection	-7269
▁stationed	-7270
▁Democratic	-7271
▁afterwards	-7272
▁encouraged	-7273
▁inhabitants	-7274
▁protagonist	-7275
▁transportation	-7276
isp	-7277
ugh	-7278
▁AP	-7279
▁CR	-7280
emia	-7281
ifer	-7282
ryst	-7283
wick	-7284
▁Dyn	-7285
▁Kim	-7286
▁Tok	-7287
▁pin	-7288
Brien	-7289
annah	-7290
iques	-7291
orial	-7292
rates	-7293
▁Cory	-7294
▁Plan	-7295
▁Skye	-7296
▁leuk	-7297
ingale	-7298
▁Every	-7299
▁Jifna	-7300
▁Lords	-7301
▁Wilde	-7302
▁cloth	-7303
▁emerg	-7304
▁genre	-7305
▁liber	-7306
▁panel	-7307
entures	-7308
▁enters	-7309
▁online	-7310
▁praise	-7311
▁ritual	-7312
▁vessel	-7313
▁Channel	-7314
▁deliber	-7315
▁operate	-7316
▁reading	-7317
▁Athletic	-7318
▁adjacent	-7319
▁happened	-7320
▁youngest	-7321
▁Radcliffe	-7322
▁accompany	-7323
▁mountains	-7324
▁movements	-7325
▁standards	-7326
▁suggesting	-7327
▁understand	-7328
▁difficulties	-7329
▁assassination	-7330
aled	-7331
aste	-7332
reme	-7333
spec	-7334
hered	-7335
otype	-7336
▁Fras	-7337
▁brig	-7338
▁enth	-7339
▁heat	-7340
▁ille	-7341
▁sunk	-7342
avalry	-7343
encing	-7344
▁Chang	-7345
▁Kevin	-7346
▁Lower	-7347
▁alien	-7348
▁crest	-7349
▁judge	-7350
▁rated	-7351
▁ready	-7352
▁siege	-7353
▁trail	-7354
ilation	-7355
vements	-7356
▁Grammy	-7357
▁Russia	-7358
▁Wilson	-7359
▁actual	-7360
▁burial	-7361
▁consol	-7362
▁custom	-7363
▁ensure	-7364
▁stable	-7365
▁throne	-7366
▁Indones	-7367
▁infrast	-7368
▁Austrian	-7369
▁Confeder	-7370
▁annually	-7371
▁hundreds	-7372
▁predomin	-7373
▁visitors	-7374
▁Elizabeth	-7375
▁defeating	-7376
▁expensive	-7377
▁preparation	-7378
▁representing	-7379
Hg	-7380
uv	-7381
yo	-7382
elle	-7383
espe	-7384
icit	-7385
usad	-7386
▁Guy	-7387
▁lap	-7388
▁sam	-7389
▁squ	-7390
▁vul	-7391
itzer	-7392
leton	-7393
▁Prog	-7394
▁Prom	-7395
▁Stra	-7396
▁coup	-7397
▁else	-7398
▁exit	-7399
▁gone	-7400
▁grey	-7401
▁pale	-7402
▁poll	-7403
▁pure	-7404
▁raid	-7405
▁tele	-7406
▁Banai	-7407
▁Burns	-7408
▁absol	-7409
▁brand	-7410
▁carri	-7411
▁cycle	-7412
▁fixed	-7413
▁owner	-7414
▁raise	-7415
▁shark	-7416
▁stere	-7417
itarian	-7418
terbury	-7419
▁Palace	-7420
▁Warren	-7421
▁excess	-7422
▁memory	-7423
▁muscar	-7424
▁rebels	-7425
▁Classic	-7426
▁Mexican	-7427
▁forming	-7428
▁grounds	-7429
▁intense	-7430
▁resumed	-7431
▁willing	-7432
▁Lawrence	-7433
▁chairman	-7434
▁claiming	-7435
▁comments	-7436
▁europium	-7437
▁executed	-7438
▁injuries	-7439
▁normally	-7440
▁purposes	-7441
▁sessions	-7442
▁writings	-7443
▁essential	-7444
▁interests	-7445
▁materials	-7446
▁musicians	-7447
▁Canterbury	-7448
▁disappoint	-7449
▁influential	-7450
AT	-7451
DS	-7452
ira	-7453
uls	-7454
zac	-7455
▁ib	-7456
illy	-7457
otal	-7458
▁Bah	-7459
▁Bed	-7460
▁lbw	-7461
▁obl	-7462
aired	-7463
ombat	-7464
owitz	-7465
▁Bass	-7466
▁Bron	-7467
▁Mack	-7468
▁Pine	-7469
▁Real	-7470
▁bulk	-7471
▁fram	-7472
▁herd	-7473
▁inHg	-7474
▁twin	-7475
▁vote	-7476
▁Jesus	-7477
▁alter	-7478
▁cargo	-7479
▁deleg	-7480
▁revol	-7481
▁subst	-7482
▁surpr	-7483
▁teach	-7484
▁union	-7485
espeare	-7486
▁Comple	-7487
▁Norway	-7488
▁Poland	-7489
▁option	-7490
▁spaces	-7491
▁Coleman	-7492
▁Protest	-7493
▁airline	-7494
▁carries	-7495
▁clearly	-7496
▁minimum	-7497
▁mixture	-7498
▁turrets	-7499
formation	-7500
▁compound	-7501
▁formally	-7502
▁overwhel	-7503
▁shipping	-7504
▁specimen	-7505
▁watching	-7506
▁objective	-7507
▁watershed	-7508
▁initiative	-7509
▁recognised	-7510
▁Shakespeare	-7511
▁residential	-7512
nal	-7513
sta	-7514
utz	-7515
▁NL	-7516
abyr	-7517
alog	-7518
fire	-7519
heim	-7520
heme	-7521
rawn	-7522
ívar	-7523
▁Fel	-7524
▁Joy	-7525
▁Neb	-7526
▁Sem	-7527
▁avo	-7528
▁enh	-7529
▁orb	-7530
aling	-7531
ossal	-7532
▁Dick	-7533
▁Mega	-7534
▁Sand	-7535
▁Supp	-7536
▁Wolf	-7537
▁easy	-7538
▁evil	-7539
▁obst	-7540
▁sons	-7541
▁tack	-7542
▁Again	-7543
▁Along	-7544
▁Geoff	-7545
▁Hergé	-7546
▁Jacob	-7547
▁Sweet	-7548
▁Techn	-7549
▁autom	-7550
▁check	-7551
▁doubt	-7552
▁inaug	-7553
▁needs	-7554
▁tight	-7555
▁Gerard	-7556
▁Kilmer	-7557
▁Police	-7558
▁argues	-7559
▁formal	-7560
▁global	-7561
abyrinth	-7562
▁Bolívar	-7563
▁Goffman	-7564
▁Janeiro	-7565
▁Journal	-7566
▁Saprang	-7567
▁Typhoon	-7568
▁install	-7569
▁journal	-7570
▁kingdom	-7571
▁objects	-7572
▁picture	-7573
▁segment	-7574
▁temples	-7575
▁theater	-7576
▁trained	-7577
▁windows	-7578
▁Cambodia	-7579
▁Champion	-7580
▁Johnston	-7581
▁composer	-7582
▁instance	-7583
▁convinced	-7584
▁preferred	-7585
▁prevented	-7586
▁simultane	-7587
▁Queensland	-7588
▁circumstances	-7589
▁reinforcements	-7590
CC	-7591
OK	-7592
eo	-7593
oes	-7594
put	-7595
uez	-7596
▁Sn	-7597
axon	-7598
ekān	-7599
erog	-7600
iang	-7601
oirs	-7602
rous	-7603
urst	-7604
▁Alb	-7605
▁BCE	-7606
▁JMA	-7607
▁McG	-7608
▁Tro	-7609
▁tip	-7610
after	-7611
emies	-7612
ifies	-7613
ledon	-7614
uppet	-7615
▁Budd	-7616
▁Garc	-7617
▁Lang	-7618
▁Nazi	-7619
▁Ward	-7620
▁Wimb	-7621
▁mask	-7622
▁myst	-7623
▁prol	-7624
▁turb	-7625
coming	-7626
▁Found	-7627
▁Media	-7628
▁Moore	-7629
▁adopt	-7630
▁plate	-7631
▁rooms	-7632
ishment	-7633
▁Bureau	-7634
▁Fraser	-7635
▁Hearts	-7636
▁Lawton	-7637
▁anyone	-7638
▁causes	-7639
▁deemed	-7640
▁desert	-7641
▁extent	-7642
▁rebell	-7643
▁sailed	-7644
▁Clinton	-7645
▁Justice	-7646
▁Koreans	-7647
▁Profess	-7648
▁listing	-7649
▁moments	-7650
▁periods	-7651
▁survive	-7652
▁dialogue	-7653
▁displays	-7654
▁internal	-7655
▁proposal	-7656
▁Palestine	-7657
▁Wimbledon	-7658
▁departure	-7659
▁municipal	-7660
▁narrative	-7661
▁travelled	-7662
eorological	-7663
▁represents	-7664
▁interaction	-7665
▁representative	-7666
MO	-7667
zi	-7668
mat	-7669
rik	-7670
▁Xe	-7671
acle	-7672
gets	-7673
ilty	-7674
rene	-7675
rift	-7676
rior	-7677
urse	-7678
▁Hob	-7679
▁Let	-7680
▁ago	-7681
▁hip	-7682
▁tex	-7683
icity	-7684
inals	-7685
uster	-7686
▁Bark	-7687
▁Celt	-7688
▁Lead	-7689
▁Marg	-7690
▁feed	-7691
▁outl	-7692
▁soul	-7693
▁bases	-7694
▁creek	-7695
▁devot	-7696
▁persu	-7697
▁Malays	-7698
▁demand	-7699
▁discip	-7700
▁ethnic	-7701
▁extrat	-7702
▁poorly	-7703
▁rounds	-7704
▁towers	-7705
▁Formula	-7706
▁bearing	-7707
▁bridges	-7708
▁delayed	-7709
▁library	-7710
▁tactics	-7711
▁Delaware	-7712
▁Guardian	-7713
▁Harrison	-7714
▁dramatic	-7715
▁formerly	-7716
▁imprison	-7717
▁portrait	-7718
▁prompted	-7719
▁starling	-7720
▁thousand	-7721
▁throwing	-7722
▁Education	-7723
▁acknowled	-7724
▁behaviour	-7725
▁compounds	-7726
▁decorated	-7727
▁defenders	-7728
▁Originally	-7729
▁Richardson	-7730
▁criticised	-7731
▁influences	-7732
▁Christopher	-7733
▁instruments	-7734
▁legislation	-7735
▁restoration	-7736
▁architecture	-7737
▁observations	-7738
▁extratropical	-7739
▁reconstruction	-7740
mel	-7741
osl	-7742
osm	-7743
▁Ep	-7744
▁Ky	-7745
▁Sb	-7746
burn	-7747
dess	-7748
dney	-7749
icul	-7750
ilst	-7751
oven	-7752
▁Cob	-7753
▁Dak	-7754
▁NCA	-7755
▁Our	-7756
▁See	-7757
▁phr	-7758
ategy	-7759
enous	-7760
inery	-7761
obile	-7762
olith	-7763
ullen	-7764
▁Bell	-7765
▁Hind	-7766
▁Then	-7767
▁Wing	-7768
▁diet	-7769
▁indu	-7770
athers	-7771
enesis	-7772
roscop	-7773
▁Canal	-7774
▁Keamy	-7775
▁Upper	-7776
▁crews	-7777
▁divor	-7778
▁nickn	-7779
▁poets	-7780
▁stood	-7781
▁trick	-7782
ificial	-7783
uscript	-7784
▁Berlin	-7785
▁Hitler	-7786
▁Kombat	-7787
▁Mortal	-7788
▁Record	-7789
▁arrive	-7790
▁citing	-7791
▁engage	-7792
▁models	-7793
▁pursue	-7794
▁smooth	-7795
▁useful	-7796
▁Atlanta	-7797
▁Fernand	-7798
▁consequ	-7799
▁possess	-7800
▁rebuilt	-7801
▁Administ	-7802
▁feelings	-7803
▁junction	-7804
▁regiment	-7805
▁remember	-7806
▁severely	-7807
▁strategy	-7808
▁thinking	-7809
▁villages	-7810
▁Cathedral	-7811
▁biography	-7812
▁considers	-7813
▁defending	-7814
▁documents	-7815
▁organised	-7816
▁temporary	-7817
▁Management	-7818
▁electronic	-7819
▁journalist	-7820
▁properties	-7821
▁substantial	-7822
▁establishing	-7823
▁understanding	-7824
van	-7825
▁Vi	-7826
▁Wi	-7827
elin	-7828
rabs	-7829
roit	-7830
▁Arj	-7831
▁Ele	-7832
▁FIA	-7833
▁Hou	-7834
▁bon	-7835
▁lie	-7836
▁nom	-7837
▁rib	-7838
overs	-7839
uthor	-7840
▁Gary	-7841
▁Mach	-7842
▁Rest	-7843
▁Such	-7844
▁cars	-7845
▁sure	-7846
ricted	-7847
▁Minor	-7848
▁Rajne	-7849
▁consc	-7850
▁doesn	-7851
▁false	-7852
▁stock	-7853
▁wheel	-7854
idation	-7855
▁Albums	-7856
▁Arabic	-7857
▁Coryth	-7858
▁Nichol	-7859
▁Silver	-7860
▁Wright	-7861
▁agents	-7862
▁corner	-7863
▁tailed	-7864
▁tunnel	-7865
atherine	-7866
▁Detroit	-7867
▁achieve	-7868
▁amateur	-7869
▁artwork	-7870
▁compete	-7871
▁sisters	-7872
▁trading	-7873
▁Ministry	-7874
▁attained	-7875
▁counties	-7876
▁engineer	-7877
▁interpre	-7878
▁neighbor	-7879
▁resigned	-7880
▁warships	-7881
▁Plunketts	-7882
▁sequences	-7883
▁techniques	-7884
▁encountered	-7885
▁Corythosaurus	-7886
fl	-7887
hl	-7888
ji	-7889
hua	-7890
ipe	-7891
oma	-7892
rim	-7893
▁Az	-7894
▁Ba	-7895
▁Jr	-7896
book	-7897
dale	-7898
mate	-7899
olay	-7900
pent	-7901
rams	-7902
wald	-7903
▁Dal	-7904
▁Hed	-7905
▁Olm	-7906
▁bom	-7907
▁bor	-7908
▁spr	-7909
apore	-7910
bound	-7911
inder	-7912
nings	-7913
uable	-7914
water	-7915
▁Fall	-7916
▁Jews	-7917
▁Lamb	-7918
▁Mand	-7919
▁Soon	-7920
▁safe	-7921
▁symp	-7922
▁wasn	-7923
incess	-7924
rorist	-7925
rupted	-7926
▁Allah	-7927
▁Anzac	-7928
▁Palmy	-7929
▁clock	-7930
▁frust	-7931
▁funer	-7932
▁innov	-7933
▁lists	-7934
▁quant	-7935
▁recur	-7936
▁spoke	-7937
▁Mother	-7938
▁condem	-7939
▁crisis	-7940
▁eleven	-7941
▁guilty	-7942
▁poison	-7943
▁prompt	-7944
▁tribut	-7945
▁triple	-7946
▁unlike	-7947
▁Defence	-7948
▁Express	-7949
▁Natives	-7950
▁Univers	-7951
▁climate	-7952
▁depicts	-7953
▁pyramid	-7954
▁readers	-7955
erogative	-7956
▁armament	-7957
▁outbreak	-7958
▁remarked	-7959
▁schedule	-7960
▁Singapore	-7961
▁Wrestling	-7962
▁audiences	-7963
▁beautiful	-7964
▁civilians	-7965
▁determine	-7966
▁engineers	-7967
▁northward	-7968
▁otherwise	-7969
▁satellite	-7970
▁biographer	-7971
▁indicating	-7972
▁originated	-7973
▁Marlborough	-7974
▁experiences	-7975
▁demonstrated	-7976
▁infrastructure	-7977
pe	-7978
▁PA	-7979
▁sq	-7980
irid	-7981
isms	-7982
orph	-7983
usts	-7984
▁Cec	-7985
▁Fei	-7986
▁McD	-7987
▁Mes	-7988
▁Sin	-7989
▁Ult	-7990
▁sky	-7991
▁Bath	-7992
▁Born	-7993
▁Cass	-7994
▁Dave	-7995
▁Link	-7996
▁Plat	-7997
▁lose	-7998
▁pack	-7999
▁rect	-8000
▁span	-8001
▁Ricky	-8002
▁climb	-8003
▁drove	-8004
▁fault	-8005
▁looks	-8006
▁orbit	-8007
▁prove	-8008
▁tests	-8009
inating	-8010
ologies	-8011
western	-8012
▁García	-8013
▁Miller	-8014
▁Pitman	-8015
▁Season	-8016
▁refuge	-8017
▁render	-8018
▁rivers	-8019
▁voiced	-8020
▁weapon	-8021
▁Gallery	-8022
▁Stefani	-8023
▁Supreme	-8024
▁burning	-8025
▁closest	-8026
▁kitsune	-8027
▁notably	-8028
▁partner	-8029
▁playoff	-8030
▁ranging	-8031
▁warning	-8032
▁Baseball	-8033
▁Phillies	-8034
▁assisted	-8035
▁behavior	-8036
▁describe	-8037
▁festival	-8038
▁garrison	-8039
▁graphics	-8040
▁informed	-8041
▁Territory	-8042
▁impressed	-8043
▁scattered	-8044
▁evacuation	-8045
▁occupation	-8046
▁photograph	-8047
▁touchdowns	-8048
▁Corporation	-8049
▁differences	-8050
▁predecessor	-8051
▁Nevertheless	-8052
▁Championships	-8053
EC	-8054
har	-8055
oko	-8056
oto	-8057
utt	-8058
▁Ra	-8059
▁Ru	-8060
▁ax	-8061
alky	-8062
hire	-8063
hist	-8064
iped	-8065
ivan	-8066
life	-8067
lock	-8068
▁Bou	-8069
▁Dig	-8070
▁Hok	-8071
▁Hom	-8072
▁Tai	-8073
▁Web	-8074
▁Wic	-8075
▁jun	-8076
▁lat	-8077
▁obv	-8078
▁ori	-8079
▁sad	-8080
apped	-8081
rants	-8082
ricts	-8083
▁FIFA	-8084
▁Glob	-8085
▁Hend	-8086
▁Much	-8087
▁Race	-8088
▁Shel	-8089
▁Shik	-8090
▁bord	-8091
▁canc	-8092
▁mamm	-8093
▁moon	-8094
▁pine	-8095
▁sale	-8096
▁styl	-8097
▁surg	-8098
▁vast	-8099
▁wine	-8100
friend	-8101
ivated	-8102
▁Event	-8103
▁diver	-8104
▁lanes	-8105
▁liked	-8106
▁rates	-8107
species	-8108
▁Having	-8109
▁Sydney	-8110
▁Treaty	-8111
▁cooper	-8112
▁parish	-8113
▁ranges	-8114
▁tempor	-8115
▁trials	-8116
▁Network	-8117
▁Overall	-8118
▁batsman	-8119
▁charged	-8120
▁cleared	-8121
▁factors	-8122
▁goddess	-8123
▁martial	-8124
▁prepare	-8125
▁ranking	-8126
▁reprodu	-8127
▁terrain	-8128
▁uniform	-8129
▁vehicle	-8130
oceratops	-8131
▁Monument	-8132
▁generals	-8133
▁moderate	-8134
▁musician	-8135
▁opponent	-8136
▁railroad	-8137
▁Initially	-8138
▁collapsed	-8139
▁displayed	-8140
▁elections	-8141
▁residence	-8142
▁suspended	-8143
▁Enterprise	-8144
▁conclusion	-8145
▁manuscript	-8146
▁scientific	-8147
▁supporters	-8148
▁considering	-8149
SP	-8150
za	-8151
ár	-8152
alf	-8153
boy	-8154
cru	-8155
gam	-8156
ocy	-8157
osh	-8158
▁JT	-8159
away	-8160
usic	-8161
xual	-8162
▁CBS	-8163
▁Nob	-8164
▁alt	-8165
▁gar	-8166
acter	-8167
rible	-8168
▁Bush	-8169
▁Caes	-8170
▁Furt	-8171
▁Kann	-8172
▁Linc	-8173
▁Moon	-8174
▁Ohio	-8175
▁Raff	-8176
▁foss	-8177
▁spur	-8178
▁teen	-8179
apping	-8180
▁Baker	-8181
▁Eight	-8182
▁Guide	-8183
▁Olmec	-8184
▁Until	-8185
▁Women	-8186
▁abund	-8187
▁amino	-8188
▁bands	-8189
▁deter	-8190
▁layer	-8191
▁prosp	-8192
▁saved	-8193
▁steep	-8194
▁wrest	-8195
ensions	-8196
▁Aerith	-8197
▁Alfred	-8198
▁Cooper	-8199
▁Hudson	-8200
▁Legacy	-8201
▁pupils	-8202
▁resign	-8203
▁scheme	-8204
▁Gilbert	-8205
▁McCarty	-8206
▁Persian	-8207
▁demands	-8208
▁earning	-8209
▁fishing	-8210
▁housing	-8211
▁hunting	-8212
criptions	-8213
▁exposure	-8214
▁imperial	-8215
▁landings	-8216
▁mainland	-8217
▁operates	-8218
▁premiere	-8219
▁restrict	-8220
▁situated	-8221
▁dangerous	-8222
▁spiritual	-8223
▁exclusively	-8224
WC	-8225
ng	-8226
no	-8227
lie	-8228
ruz	-8229
uts	-8230
uty	-8231
▁Ey	-8232
graf	-8233
inje	-8234
rapy	-8235
reck	-8236
▁Sid	-8237
▁Tan	-8238
▁Yug	-8239
▁rig	-8240
acles	-8241
inian	-8242
odore	-8243
urday	-8244
▁Hope	-8245
▁JTWC	-8246
▁Krak	-8247
▁Last	-8248
▁Near	-8249
▁Sull	-8250
▁bell	-8251
▁fill	-8252
▁mode	-8253
▁suit	-8254
agogue	-8255
azines	-8256
rating	-8257
▁Grade	-8258
▁analy	-8259
▁costs	-8260
▁crash	-8261
▁crops	-8262
▁explo	-8263
▁giant	-8264
▁ninet	-8265
▁rifle	-8266
▁saves	-8267
▁cancer	-8268
▁dispat	-8269
▁expect	-8270
▁revers	-8271
▁ruling	-8272
▁styles	-8273
inations	-8274
▁Furtado	-8275
▁Raffles	-8276
▁Release	-8277
▁Swedish	-8278
▁biggest	-8279
▁founder	-8280
▁neutral	-8281
▁trouble	-8282
▁Campaign	-8283
▁Markgraf	-8284
▁Portugal	-8285
▁Saturday	-8286
▁collapse	-8287
▁constant	-8288
▁disaster	-8289
▁striking	-8290
▁struggle	-8291
▁subjects	-8292
▁suitable	-8293
▁Dominican	-8294
▁premiered	-8295
▁underwent	-8296
▁celebrated	-8297
▁respective	-8298
▁statistics	-8299
▁Furthermore	-8300
▁interesting	-8301
▁perspective	-8302
▁temporarily	-8303
▁contribution	-8304
▁organisation	-8305
▁southeastern	-8306
▁opportunities	-8307
NL	-8308
oda	-8309
udo	-8310
▁CO	-8311
▁Ga	-8312
onto	-8313
time	-8314
zing	-8315
▁Ark	-8316
▁DAG	-8317
▁Gen	-8318
▁NHL	-8319
▁Pow	-8320
▁Ren	-8321
▁Stu	-8322
▁Tal	-8323
▁err	-8324
▁nit	-8325
▁oxy	-8326
arant	-8327
ersed	-8328
ewise	-8329
iliar	-8330
piece	-8331
power	-8332
shore	-8333
▁Come	-8334
▁Corb	-8335
▁Lith	-8336
▁NCAA	-8337
▁Pier	-8338
▁Usta	-8339
▁fert	-8340
▁gets	-8341
▁huge	-8342
▁hull	-8343
▁lake	-8344
asters	-8345
cribed	-8346
ecraft	-8347
osaurs	-8348
▁Allen	-8349
▁Valky	-8350
▁Years	-8351
▁grown	-8352
▁paras	-8353
▁renov	-8354
▁tenth	-8355
▁truck	-8356
tenance	-8357
ulating	-8358
▁Arjona	-8359
▁Hawaii	-8360
▁Sholay	-8361
▁Social	-8362
▁attrib	-8363
▁banned	-8364
▁format	-8365
▁listen	-8366
▁refere	-8367
▁repair	-8368
▁trough	-8369
ervative	-8370
▁Simpson	-8371
▁Stewart	-8372
▁amounts	-8373
▁chamber	-8374
▁charity	-8375
▁nations	-8376
▁seeking	-8377
▁succeed	-8378
▁violent	-8379
▁Campbell	-8380
▁dominant	-8381
▁electron	-8382
▁highways	-8383
▁measured	-8384
▁muscaria	-8385
▁realized	-8386
▁depending	-8387
▁elevation	-8388
▁encounter	-8389
▁favorable	-8390
▁magazines	-8391
▁Interstate	-8392
▁Mozambique	-8393
▁conspiracy	-8394
▁difference	-8395
▁eliminated	-8396
▁retirement	-8397
▁withdrawal	-8398
▁advertising	-8399
▁prerogative	-8400
▁productions	-8401
▁researchers	-8402
▁Headquarters	-8403
DH	-8404
ti	-8405
box	-8406
don	-8407
ean	-8408
egr	-8409
▁Cy	-8410
icus	-8411
idel	-8412
ints	-8413
niow	-8414
omic	-8415
ongs	-8416
pled	-8417
ryce	-8418
vati	-8419
warf	-8420
▁Est	-8421
▁Ext	-8422
▁McL	-8423
▁McM	-8424
▁Mun	-8425
▁eat	-8426
▁gam	-8427
▁hem	-8428
mouth	-8429
▁Boys	-8430
▁Dean	-8431
▁Hamp	-8432
▁Hans	-8433
▁Nash	-8434
▁Niel	-8435
▁Schm	-8436
▁Thus	-8437
▁anch	-8438
▁bear	-8439
▁clim	-8440
▁drug	-8441
▁mbar	-8442
▁pref	-8443
▁tiss	-8444
▁toll	-8445
▁vice	-8446
orious	-8447
▁Barry	-8448
▁dwarf	-8449
▁elder	-8450
▁fatal	-8451
▁manga	-8452
▁prime	-8453
▁weigh	-8454
▁wings	-8455
niowiec	-8456
▁Barker	-8457
▁Graves	-8458
▁Labour	-8459
▁Lincol	-8460
▁Maggie	-8461
▁Napole	-8462
▁Philip	-8463
▁Wander	-8464
▁Watson	-8465
▁Yugosl	-8466
▁aspect	-8467
▁driver	-8468
▁exists	-8469
▁Austria	-8470
▁Belgium	-8471
▁Israeli	-8472
▁Toronto	-8473
▁columns	-8474
▁freedom	-8475
▁harbour	-8476
▁jackrab	-8477
▁profile	-8478
▁putting	-8479
▁Sullivan	-8480
▁citizens	-8481
▁cruisers	-8482
▁cyclones	-8483
▁designer	-8484
▁everyone	-8485
▁explains	-8486
▁frequent	-8487
▁numbered	-8488
▁promised	-8489
▁releases	-8490
▁Communist	-8491
▁Hungarian	-8492
▁advancing	-8493
▁childhood	-8494
▁directors	-8495
▁employees	-8496
▁strategic	-8497
▁withdrawn	-8498
▁Protestant	-8499
▁subspecies	-8500
▁Heavyweight	-8501
▁institution	-8502
▁nominations	-8503
▁publications	-8504
▁characterized	-8505
▁distinguished	-8506
▁classification	-8507
▁communications	-8508
Pa	-8509
aks	-8510
aku	-8511
oof	-8512
▁AT	-8513
arsh	-8514
ashi	-8515
enic	-8516
geon	-8517
inds	-8518
ishn	-8519
olis	-8520
unes	-8521
▁Bab	-8522
▁Mrs	-8523
▁Raw	-8524
▁UFC	-8525
▁Wag	-8526
▁bod	-8527
alymp	-8528
eping	-8529
▁Benn	-8530
▁Boss	-8531
▁Conc	-8532
▁Gate	-8533
▁Glad	-8534
▁Sans	-8535
▁feud	-8536
▁spac	-8537
ellect	-8538
▁Derry	-8539
▁Eagle	-8540
▁Hills	-8541
▁Polit	-8542
▁Rocky	-8543
▁Tracy	-8544
▁Turks	-8545
▁bears	-8546
▁chess	-8547
▁coins	-8548
▁drain	-8549
▁falls	-8550
▁guerr	-8551
▁metre	-8552
▁shaft	-8553
▁slide	-8554
▁spend	-8555
▁texts	-8556
ecution	-8557
ekāntav	-8558
itively	-8559
▁Bulgar	-8560
▁beauty	-8561
▁skills	-8562
▁spores	-8563
▁Ancient	-8564
▁Arsenal	-8565
▁Parvati	-8566
▁Perform	-8567
▁Phoenix	-8568
▁Réunion	-8569
▁benefit	-8570
▁centers	-8571
▁enemies	-8572
▁holiday	-8573
▁peaking	-8574
▁targets	-8575
urricanes	-8576
▁Building	-8577
▁Business	-8578
▁Paralymp	-8579
▁airfield	-8580
▁cemetery	-8581
▁emphasis	-8582
▁assembled	-8583
▁batteries	-8584
▁initiated	-8585
▁strongest	-8586
▁submitted	-8587
▁aggressive	-8588
▁businesses	-8589
▁excavation	-8590
▁restricted	-8591
▁thereafter	-8592
▁Organization	-8593
▁concentrated	-8594
▁strengthened	-8595
yc	-8596
ée	-8597
aki	-8598
asm	-8599
gov	-8600
nie	-8601
▁AA	-8602
▁Sk	-8603
asts	-8604
atur	-8605
cour	-8606
mont	-8607
▁Ace	-8608
▁Gro	-8609
▁Sym	-8610
adier	-8611
aints	-8612
essee	-8613
heera	-8614
isler	-8615
onsin	-8616
oster	-8617
▁Gwen	-8618
▁Kirk	-8619
▁Poly	-8620
▁Roth	-8621
▁Wisc	-8622
▁asks	-8623
▁gray	-8624
▁horn	-8625
▁jury	-8626
urance	-8627
▁Anglo	-8628
▁Asian	-8629
▁Brand	-8630
▁Eaton	-8631
▁Jason	-8632
▁Kelly	-8633
▁Khand	-8634
▁Staff	-8635
▁Trail	-8636
▁aimed	-8637
▁alive	-8638
▁comed	-8639
▁feels	-8640
▁fifty	-8641
▁latex	-8642
▁mines	-8643
▁unlik	-8644
▁votes	-8645
▁yield	-8646
raction	-8647
▁Murray	-8648
▁Slayer	-8649
▁fallen	-8650
▁honour	-8651
▁merely	-8652
▁patrol	-8653
▁sounds	-8654
▁strict	-8655
▁topped	-8656
▁Critics	-8657
▁Kannada	-8658
▁altered	-8659
▁amongst	-8660
▁decides	-8661
▁fifteen	-8662
▁hearing	-8663
▁joining	-8664
▁removal	-8665
▁testing	-8666
ropolitan	-8667
▁Jonathan	-8668
▁Rhodesia	-8669
▁armoured	-8670
▁boundary	-8671
▁delivery	-8672
ekāntavāda	-8673
▁Tennessee	-8674
▁Wisconsin	-8675
▁believing	-8676
▁districts	-8677
▁fundament	-8678
▁radiation	-8679
▁starlings	-8680
▁variation	-8681
▁adaptation	-8682
▁artificial	-8683
▁conversion	-8684
▁inscription	-8685
▁inscriptions	-8686
▁architectural	-8687
▁communication	-8688
jan	-8689
pan	-8690
zed	-8691
▁VI	-8692
char	-8693
itia	-8694
olen	-8695
▁Dum	-8696
▁Fle	-8697
▁Kam	-8698
▁Már	-8699
▁Vul	-8700
▁ped	-8701
▁wet	-8702
neath	-8703
otten	-8704
oyage	-8705
taker	-8706
▁Gray	-8707
▁Howe	-8708
▁Lost	-8709
▁Next	-8710
▁dies	-8711
▁fasc	-8712
▁fate	-8713
▁harm	-8714
▁sung	-8715
achute	-8716
amount	-8717
atinum	-8718
ennium	-8719
inding	-8720
▁Bulls	-8721
▁Categ	-8722
▁Davis	-8723
▁Falls	-8724
▁Midge	-8725
▁flash	-8726
▁nurse	-8727
▁steps	-8728
▁upset	-8729
▁usage	-8730
▁vault	-8731
▁Stuart	-8732
▁antiqu	-8733
▁apprec	-8734
▁empire	-8735
▁expert	-8736
▁genera	-8737
▁helmet	-8738
▁notice	-8739
▁pulled	-8740
▁stores	-8741
ensively	-8742
▁Masters	-8743
▁Márquez	-8744
▁Perfect	-8745
▁Railway	-8746
▁illegal	-8747
▁pounder	-8748
▁suicide	-8749
▁talking	-8750
▁Category	-8751
▁Khandoba	-8752
▁Rajneesh	-8753
▁approval	-8754
▁arriving	-8755
▁departed	-8756
▁fountain	-8757
▁surprise	-8758
▁conflicts	-8759
▁entertain	-8760
▁intellect	-8761
▁magnitude	-8762
▁predators	-8763
▁uncertain	-8764
▁Eventually	-8765
▁Foundation	-8766
▁comparison	-8767
▁demolished	-8768
▁engagement	-8769
▁impression	-8770
▁substitute	-8771
▁theatrical	-8772
▁application	-8773
▁distinctive	-8774
▁potentially	-8775
▁conservation	-8776
▁environmental	-8777
ua	-8778
ami	-8779
iao	-8780
ige	-8781
nda	-8782
ods	-8783
opl	-8784
unc	-8785
vor	-8786
yll	-8787
▁Mk	-8788
▁SM	-8789
▁SS	-8790
▁vs	-8791
LIMO	-8792
arte	-8793
imer	-8794
unch	-8795
▁Beh	-8796
▁FRE	-8797
▁Non	-8798
▁Sle	-8799
▁Vik	-8800
▁hen	-8801
▁mir	-8802
▁net	-8803
▁rot	-8804
▁tub	-8805
akers	-8806
ashes	-8807
chell	-8808
dress	-8809
ester	-8810
illas	-8811
jamin	-8812
omura	-8813
▁Circ	-8814
▁Eric	-8815
▁Harv	-8816
▁Raid	-8817
▁encl	-8818
▁navy	-8819
▁pole	-8820
▁rend	-8821
▁swim	-8822
echism	-8823
▁Bacon	-8824
▁Girls	-8825
▁Keith	-8826
▁Swiss	-8827
▁breed	-8828
▁choir	-8829
▁coinc	-8830
▁dense	-8831
▁edges	-8832
▁effic	-8833
▁forty	-8834
▁hills	-8835
▁march	-8836
▁recon	-8837
▁threw	-8838
▁toler	-8839
▁trust	-8840
▁wider	-8841
imetres	-8842
▁Celtic	-8843
▁Mulder	-8844
▁Peters	-8845
▁Return	-8846
▁Studio	-8847
▁advice	-8848
▁armies	-8849
▁circle	-8850
▁enthus	-8851
▁toured	-8852
▁FRELIMO	-8853
▁Francis	-8854
▁Houston	-8855
▁Journey	-8856
▁Jurchen	-8857
▁Madison	-8858
▁Program	-8859
▁Stories	-8860
▁Village	-8861
▁disagre	-8862
▁evident	-8863
▁handled	-8864
▁inflict	-8865
▁ongoing	-8866
niowiecki	-8867
▁Benjamin	-8868
▁coaching	-8869
▁confront	-8870
▁friendly	-8871
▁reducing	-8872
▁relation	-8873
▁unlikely	-8874
▁visiting	-8875
▁McCartney	-8876
▁Similarly	-8877
▁adventure	-8878
▁emergency	-8879
▁referring	-8880
▁synagogue	-8881
▁completing	-8882
▁permission	-8883
▁helicopters	-8884
▁maintenance	-8885
▁settlements	-8886
IA	-8887
PA	-8888
mn	-8889
iac	-8890
owa	-8891
rep	-8892
▁CP	-8893
▁Da	-8894
▁PC	-8895
▁id	-8896
icia	-8897
ieth	-8898
nels	-8899
vant	-8900
▁Esh	-8901
▁Lud	-8902
▁MLB	-8903
▁Nav	-8904
▁Nev	-8905
▁SAS	-8906
▁gap	-8907
▁kit	-8908
▁mac	-8909
▁pap	-8910
▁wel	-8911
angel	-8912
anyon	-8913
ellar	-8914
ernon	-8915
oples	-8916
orage	-8917
tario	-8918
yline	-8919
▁Coll	-8920
▁Magn	-8921
▁Sour	-8922
▁Sout	-8923
▁Stal	-8924
▁Tree	-8925
▁hook	-8926
▁offs	-8927
▁plus	-8928
▁sang	-8929
▁summ	-8930
father	-8931
ieties	-8932
▁Guine	-8933
▁Obser	-8934
▁Oscar	-8935
▁Sheff	-8936
▁Those	-8937
▁banks	-8938
▁caves	-8939
▁diagn	-8940
osexual	-8941
▁Author	-8942
▁Caesar	-8943
▁Ernest	-8944
▁Health	-8945
▁Leslie	-8946
▁Rifles	-8947
▁Scully	-8948
▁Wagner	-8949
▁assess	-8950
▁cotton	-8951
▁inning	-8952
▁melody	-8953
▁mobile	-8954
▁obtain	-8955
▁priest	-8956
▁propag	-8957
▁sacred	-8958
▁satisf	-8959
▁venues	-8960
atically	-8961
▁Lincoln	-8962
▁Ontario	-8963
▁beating	-8964
▁ceremon	-8965
▁keeping	-8966
▁powered	-8967
▁rushing	-8968
▁weekend	-8969
▁Original	-8970
▁controls	-8971
▁creative	-8972
▁feathers	-8973
▁networks	-8974
▁spending	-8975
▁starring	-8976
▁Louisiana	-8977
▁capturing	-8978
▁elaborate	-8979
▁headdress	-8980
▁secretary	-8981
▁similarly	-8982
▁battleship	-8983
▁definition	-8984
▁philosophy	-8985
▁recordings	-8986
▁spacecraft	-8987
▁strikeouts	-8988
▁structural	-8989
▁Outstanding	-8990
▁negotiations	-8991
▁northeastern	-8992
▁collaboration	-8993
▁simultaneously	-8994
Ch	-8995
ci	-8996
fe	-8997
po	-8998
bre	-8999
cho	-9000
enz	-9001
nik	-9002
ogy	-9003
oux	-9004
▁DD	-9005
▁Dh	-9006
iger	-9007
iper	-9008
oken	-9009
otyp	-9010
rols	-9011
tong	-9012
umps	-9013
▁Mem	-9014
▁Rap	-9015
▁Son	-9016
▁Tit	-9017
▁cup	-9018
▁fro	-9019
alley	-9020
endar	-9021
itage	-9022
raska	-9023
sters	-9024
▁Beth	-9025
▁Hugh	-9026
▁Khan	-9027
▁Mall	-9028
▁Maur	-9029
▁Sign	-9030
▁Trek	-9031
▁Vand	-9032
▁bare	-9033
▁bran	-9034
▁duty	-9035
▁jobs	-9036
▁ride	-9037
estyle	-9038
ocaust	-9039
otilla	-9040
▁beats	-9041
▁crake	-9042
▁rocks	-9043
▁ruler	-9044
▁sharp	-9045
minster	-9046
olithic	-9047
▁Austro	-9048
▁Chapel	-9049
▁Hokies	-9050
▁Magdal	-9051
▁Survey	-9052
▁Walker	-9053
▁credit	-9054
▁handed	-9055
▁hidden	-9056
▁lacked	-9057
▁meters	-9058
▁promin	-9059
▁remove	-9060
▁tasked	-9061
▁turret	-9062
▁values	-9063
▁Mathews	-9064
▁Matthew	-9065
▁Naktong	-9066
▁Natural	-9067
▁Switzer	-9068
▁anticip	-9069
▁bombing	-9070
▁donated	-9071
▁helping	-9072
▁platoon	-9073
▁surgery	-9074
▁telling	-9075
▁trapped	-9076
▁waiting	-9077
▁Broadway	-9078
▁Nebraska	-9079
▁Together	-9080
▁astronom	-9081
▁birthday	-9082
▁facility	-9083
▁vertical	-9084
▁battlecru	-9085
▁perimeter	-9086
▁professor	-9087
▁struggled	-9088
▁manufactur	-9089
▁newspapers	-9090
▁percentage	-9091
▁scientists	-9092
▁sculptures	-9093
▁vegetation	-9094
▁excavations	-9095
▁participate	-9096
▁personality	-9097
▁Meteorological	-9098
ES	-9099
asa	-9100
iri	-9101
phy	-9102
rad	-9103
ski	-9104
uki	-9105
▁Ta	-9106
acre	-9107
aman	-9108
amer	-9109
ayan	-9110
eign	-9111
oded	-9112
oust	-9113
umin	-9114
▁ABC	-9115
▁Aut	-9116
▁Fem	-9117
▁Fil	-9118
▁Hop	-9119
▁Ian	-9120
▁Mit	-9121
▁Pur	-9122
▁cyt	-9123
▁rid	-9124
amaru	-9125
arris	-9126
etime	-9127
zegov	-9128
▁Abby	-9129
▁Anne	-9130
▁Barn	-9131
▁Call	-9132
▁Emmy	-9133
▁Sony	-9134
▁Tony	-9135
▁abol	-9136
▁bowl	-9137
▁cake	-9138
▁coin	-9139
▁conj	-9140
▁memb	-9141
Malley	-9142
active	-9143
▁Actor	-9144
▁Banks	-9145
▁Bible	-9146
▁Ghost	-9147
▁Magad	-9148
▁Trust	-9149
▁anime	-9150
▁brain	-9151
▁gates	-9152
▁goods	-9153
▁grave	-9154
▁mayor	-9155
▁memor	-9156
▁monit	-9157
▁reass	-9158
▁simpl	-9159
▁talks	-9160
▁tooth	-9161
imented	-9162
inction	-9163
▁Agency	-9164
▁Angela	-9165
▁Brooks	-9166
▁Canyon	-9167
▁Chagas	-9168
▁Dakota	-9169
▁Finals	-9170
▁Giants	-9171
▁Harold	-9172
▁Invest	-9173
▁Michel	-9174
▁excell	-9175
▁neighb	-9176
▁parody	-9177
▁pounds	-9178
▁profit	-9179
▁shares	-9180
▁supern	-9181
▁superv	-9182
overeign	-9183
▁Nielsen	-9184
▁Without	-9185
▁Yankees	-9186
▁dispute	-9187
▁imagery	-9188
▁restore	-9189
▁revised	-9190
▁walking	-9191
▁warfare	-9192
▁Children	-9193
▁Herzegov	-9194
▁Kentucky	-9195
▁Register	-9196
▁Valkyria	-9197
▁accurate	-9198
▁assembly	-9199
▁receives	-9200
▁shoulder	-9201
▁Sheffield	-9202
▁Shikamaru	-9203
▁Wanderers	-9204
▁evacuated	-9205
▁execution	-9206
▁inclusion	-9207
▁reflected	-9208
▁virtually	-9209
▁Christians	-9210
▁colleagues	-9211
▁discussion	-9212
▁exhibition	-9213
▁expression	-9214
▁undertaken	-9215
▁Switzerland	-9216
▁commandment	-9217
▁extensively	-9218
▁operational	-9219
▁programming	-9220
▁quarterback	-9221
▁tournaments	-9222
▁translation	-9223
▁Independence	-9224
▁conventional	-9225
▁Transportation	-9226
CO	-9227
NC	-9228
ht	-9229
EFA	-9230
ahi	-9231
equ	-9232
erg	-9233
gon	-9234
hum	-9235
kes	-9236
lee	-9237
sex	-9238
▁af	-9239
aria	-9240
bing	-9241
gars	-9242
ipes	-9243
osom	-9244
zhou	-9245
▁Abd	-9246
▁Dog	-9247
▁Kit	-9248
▁Str	-9249
▁bra	-9250
▁tor	-9251
acruz	-9252
berry	-9253
burgh	-9254
enden	-9255
inted	-9256
▁Cond	-9257
▁Diam	-9258
▁Dram	-9259
▁Face	-9260
▁Priv	-9261
▁Sant	-9262
▁UEFA	-9263
▁boss	-9264
▁boys	-9265
▁cave	-9266
▁clin	-9267
▁dict	-9268
▁diff	-9269
▁nurs	-9270
▁tale	-9271
irates	-9272
▁Evans	-9273
▁Heart	-9274
▁Pryce	-9275
▁Tokyo	-9276
▁chrom	-9277
▁decay	-9278
▁deity	-9279
▁fewer	-9280
▁infer	-9281
▁kills	-9282
▁manip	-9283
▁motif	-9284
▁roots	-9285
▁trend	-9286
angular	-9287
illiant	-9288
underst	-9289
▁Bertin	-9290
▁Cheval	-9291
▁Heaven	-9292
▁Madrid	-9293
▁Priest	-9294
▁Rivers	-9295
▁devast	-9296
▁graves	-9297
▁insurg	-9298
▁racing	-9299
▁retain	-9300
▁rising	-9301
▁weekly	-9302
▁Library	-9303
▁closing	-9304
▁contrad	-9305
▁evolved	-9306
▁factory	-9307
▁obvious	-9308
▁patrols	-9309
▁Province	-9310
▁Veracruz	-9311
▁competed	-9312
▁identify	-9313
▁machines	-9314
▁offering	-9315
▁Holocaust	-9316
▁Waterfall	-9317
▁prisoners	-9318
▁squadrons	-9319
▁Magadheera	-9320
▁accomplish	-9321
▁intersects	-9322
▁mechanical	-9323
▁personally	-9324
▁resolution	-9325
▁supplement	-9326
▁Herzegovina	-9327
▁appointment	-9328
▁appropriate	-9329
▁Conservation	-9330
▁temperatures	-9331
ko	-9332
ASP	-9333
ugu	-9334
una	-9335
▁Ah	-9336
▁Ku	-9337
▁Yo	-9338
▁yd	-9339
agen	-9340
atch	-9341
grad	-9342
iney	-9343
ogan	-9344
otte	-9345
usan	-9346
▁Dah	-9347
▁Dub	-9348
▁Joh	-9349
▁Las	-9350
▁Tag	-9351
▁Tat	-9352
▁fee	-9353
▁tut	-9354
enged	-9355
enger	-9356
entle	-9357
oking	-9358
omtav	-9359
ultan	-9360
where	-9361
▁Djok	-9362
▁Girl	-9363
▁Have	-9364
▁Mars	-9365
▁Publ	-9366
▁alph	-9367
▁cook	-9368
▁flew	-9369
▁fulf	-9370
▁liqu	-9371
▁loud	-9372
▁pace	-9373
▁perp	-9374
▁phen	-9375
▁pion	-9376
▁rede	-9377
▁sket	-9378
▁tort	-9379
▁wish	-9380
azirid	-9381
resent	-9382
▁Books	-9383
▁Congo	-9384
▁Glass	-9385
▁Marie	-9386
▁Youth	-9387
▁admin	-9388
▁facil	-9389
▁forth	-9390
▁incom	-9391
▁inhab	-9392
▁overt	-9393
▁raids	-9394
▁solar	-9395
▁twent	-9396
▁valid	-9397
▁veter	-9398
▁wreck	-9399
aration	-9400
eteries	-9401
ighters	-9402
ocation	-9403
▁Charts	-9404
▁Intern	-9405
▁agency	-9406
▁asking	-9407
▁behalf	-9408
▁bishop	-9409
▁oxygen	-9410
▁parent	-9411
▁sevent	-9412
▁string	-9413
▁victim	-9414
▁whilst	-9415
▁Asomtav	-9416
▁Country	-9417
▁credits	-9418
▁flooded	-9419
▁origins	-9420
▁placing	-9421
▁printed	-9422
▁raising	-9423
▁routing	-9424
▁wealthy	-9425
▁Djokovic	-9426
▁Napoleon	-9427
▁Official	-9428
▁brigades	-9429
▁deterior	-9430
▁explicit	-9431
▁frigates	-9432
▁opposing	-9433
▁patterns	-9434
▁produces	-9435
▁Catechism	-9436
▁decisions	-9437
▁destroyer	-9438
▁evolution	-9439
▁preparing	-9440
▁reactions	-9441
▁sentences	-9442
▁components	-9443
▁kilometers	-9444
▁objectives	-9445
▁proportion	-9446
▁Asomtavruli	-9447
▁Westminster	-9448
▁approaching	-9449
▁interpreted	-9450
▁maintaining	-9451
▁transported	-9452
▁Constitution	-9453
▁accompanying	-9454
▁neighborhood	-9455
▁Scientologists	-9456
adi	-9457
asp	-9458
ibl	-9459
obi	-9460
oyd	-9461
rov	-9462
▁Dw	-9463
▁NS	-9464
eded	-9465
hous	-9466
▁Ale	-9467
▁Din	-9468
▁Dor	-9469
▁Dud	-9470
▁Eug	-9471
▁Jen	-9472
▁Kin	-9473
▁Kon	-9474
▁Lin	-9475
▁Nat	-9476
▁Rag	-9477
▁Say	-9478
▁TNA	-9479
▁Vic	-9480
▁hPa	-9481
▁tom	-9482
▁vel	-9483
arded	-9484
arthy	-9485
emble	-9486
yself	-9487
▁Aman	-9488
▁Cred	-9489
▁Cubs	-9490
▁Lane	-9491
▁Mant	-9492
▁Omar	-9493
▁coff	-9494
▁cous	-9495
▁dams	-9496
▁dece	-9497
▁dust	-9498
▁fles	-9499
▁hosp	-9500
▁stim	-9501
▁unex	-9502
aceous	-9503
bourne	-9504
esters	-9505
icians	-9506
▁Carre	-9507
▁Metro	-9508
▁Prize	-9509
▁Shell	-9510
▁Somet	-9511
▁advoc	-9512
▁docum	-9513
▁essay	-9514
▁girls	-9515
▁horiz	-9516
▁rains	-9517
▁rhyme	-9518
▁shift	-9519
▁trunk	-9520
▁Eshmun	-9521
▁Guinea	-9522
▁Joshua	-9523
▁Yellow	-9524
▁aboard	-9525
▁anthem	-9526
▁astero	-9527
▁boxing	-9528
▁dubbed	-9529
▁enroll	-9530
▁housed	-9531
▁indeed	-9532
▁mathem	-9533
▁phrase	-9534
▁pretty	-9535
▁recept	-9536
▁sample	-9537
▁signal	-9538
▁wishes	-9539
▁Imagine	-9540
▁Islamic	-9541
▁Mariana	-9542
▁compens	-9543
▁disband	-9544
▁escaped	-9545
▁explain	-9546
▁mystery	-9547
▁onwards	-9548
▁reforms	-9549
▁repairs	-9550
▁soldier	-9551
▁touring	-9552
▁tourist	-9553
▁ceratops	-9554
▁clothing	-9555
▁duration	-9556
▁eventual	-9557
▁fourteen	-9558
▁hydrogen	-9559
▁ordering	-9560
▁policies	-9561
▁vicinity	-9562
▁Champions	-9563
▁Charlotte	-9564
▁commenced	-9565
▁component	-9566
▁displaced	-9567
▁ambassador	-9568
▁commanders	-9569
▁commentary	-9570
▁documented	-9571
▁experiment	-9572
▁reinforced	-9573
▁volunteers	-9574
▁governments	-9575
▁conversation	-9576
▁universities	-9577
▁archaeologist	-9578
▁representation	-9579
ME	-9580
rh	-9581
aho	-9582
ova	-9583
▁Ni	-9584
▁ca	-9585
emen	-9586
gian	-9587
imon	-9588
▁Blu	-9589
▁Cyr	-9590
▁Hur	-9591
▁Lim	-9592
▁NDH	-9593
▁Pas	-9594
▁Ple	-9595
▁Sev	-9596
▁Syn	-9597
▁buy	-9598
▁gat	-9599
▁lad	-9600
▁lin	-9601
astra	-9602
aters	-9603
byter	-9604
class	-9605
elson	-9606
itter	-9607
ocent	-9608
ungle	-9609
▁Cant	-9610
▁Stav	-9611
▁beam	-9612
▁mand	-9613
▁wors	-9614
aguchi	-9615
incial	-9616
▁Blues	-9617
▁Exper	-9618
▁Kings	-9619
▁Leigh	-9620
▁Peach	-9621
▁Seven	-9622
▁Sorra	-9623
▁Wicca	-9624
▁Works	-9625
▁Xenon	-9626
▁acids	-9627
▁canal	-9628
▁chest	-9629
▁humor	-9630
▁inher	-9631
▁legit	-9632
▁marry	-9633
▁redes	-9634
▁spots	-9635
▁vital	-9636
legraph	-9637
ometric	-9638
ropolis	-9639
▁Centre	-9640
▁Herald	-9641
▁Morgan	-9642
▁Nevada	-9643
▁affili	-9644
▁aggreg	-9645
▁assert	-9646
▁bypass	-9647
▁choose	-9648
▁edited	-9649
▁hamlet	-9650
▁poetic	-9651
▁reader	-9652
▁rushed	-9653
▁solely	-9654
▁subsid	-9655
▁tested	-9656
▁timber	-9657
▁vulner	-9658
aughters	-9659
▁Finally	-9660
▁Leonard	-9661
▁Species	-9662
▁balance	-9663
▁blocked	-9664
▁cavalry	-9665
▁closure	-9666
▁comprom	-9667
▁feeding	-9668
▁peoples	-9669
▁runners	-9670
▁shorter	-9671
▁sixteen	-9672
▁Columbus	-9673
▁Heritage	-9674
▁McCarthy	-9675
▁Robinson	-9676
▁Romanian	-9677
▁advertis	-9678
▁animated	-9679
▁artistic	-9680
▁attorney	-9681
▁platinum	-9682
▁suddenly	-9683
▁comprised	-9684
▁depicting	-9685
▁intercept	-9686
▁Ambassador	-9687
▁Chevaliers	-9688
▁Federation	-9689
▁approaches	-9690
▁boundaries	-9691
▁cemeteries	-9692
▁connecting	-9693
▁indigenous	-9694
▁industries	-9695
▁publishing	-9696
▁Description	-9697
▁Interchange	-9698
▁compilation	-9699
▁disturbance	-9700
▁observation	-9701
▁presentation	-9702
▁championships	-9703
▁administrative	-9704
▁characteristic	-9705
aro	-9706
fly	-9707
lyn	-9708
nen	-9709
tic	-9710
▁Nu	-9711
▁Ow	-9712
▁hi	-9713
appy	-9714
aski	-9715
athy	-9716
ilda	-9717
rett	-9718
▁Cad	-9719
▁Fif	-9720
▁Gaz	-9721
▁Hey	-9722
▁Imm	-9723
▁McK	-9724
▁Pak	-9725
▁Pam	-9726
▁RAR	-9727
▁Sau	-9728
▁pse	-9729
inces	-9730
mates	-9731
▁Bald	-9732
▁Buck	-9733
▁Jard	-9734
▁Know	-9735
▁Nett	-9736
▁Poet	-9737
▁Rhys	-9738
▁bore	-9739
▁cler	-9740
▁epic	-9741
▁gang	-9742
▁gift	-9743
▁isot	-9744
▁lamb	-9745
▁obsc	-9746
▁pull	-9747
▁seas	-9748
▁wait	-9749
mented	-9750
opping	-9751
rystal	-9752
▁Abbey	-9753
▁Claud	-9754
▁Cress	-9755
▁Freak	-9756
▁Local	-9757
▁Prest	-9758
▁acted	-9759
▁bombs	-9760
▁chain	-9761
▁pages	-9762
▁pairs	-9763
▁resol	-9764
▁seats	-9765
▁semif	-9766
▁signs	-9767
▁sized	-9768
▁spawn	-9769
landers	-9770
mediate	-9771
▁Carmel	-9772
▁Econom	-9773
▁Sweden	-9774
▁aerial	-9775
▁helium	-9776
▁junior	-9777
▁mature	-9778
▁pilots	-9779
▁runway	-9780
▁themed	-9781
▁traded	-9782
restrial	-9783
▁Commons	-9784
▁Dodgers	-9785
▁Dynasty	-9786
▁Foreign	-9787
▁Pulaski	-9788
▁Section	-9789
▁Studies	-9790
▁Welling	-9791
▁acceler	-9792
▁beliefs	-9793
▁courses	-9794
▁sitting	-9795
▁starter	-9796
▁tracked	-9797
▁unnamed	-9798
▁Hawaiian	-9799
▁Malaysia	-9800
▁detected	-9801
▁embarked	-9802
▁flagship	-9803
▁pitching	-9804
▁pleasure	-9805
▁portions	-9806
▁solution	-9807
▁Christine	-9808
▁Community	-9809
▁abilities	-9810
▁functions	-9811
▁indicates	-9812
▁molecules	-9813
▁rebellion	-9814
▁recommend	-9815
▁replacing	-9816
▁Collection	-9817
▁Philippine	-9818
▁profession	-9819
▁punishment	-9820
▁statements	-9821
▁translated	-9822
▁illustrated	-9823
▁entertainment	-9824
▁archaeologists	-9825
eu	-9826
ele	-9827
esi	-9828
zer	-9829
▁Kō	-9830
▁WN	-9831
Grom	-9832
dict	-9833
isen	-9834
itic	-9835
krit	-9836
orig	-9837
osek	-9838
othe	-9839
roke	-9840
zong	-9841
▁Cem	-9842
▁Kle	-9843
▁McN	-9844
▁Nag	-9845
▁Vel	-9846
▁WWF	-9847
▁Zoo	-9848
▁cir	-9849
▁cro	-9850
▁hyg	-9851
▁kid	-9852
▁sew	-9853
▁sin	-9854
chens	-9855
odrom	-9856
umble	-9857
▁Bapt	-9858
▁Burm	-9859
▁Edge	-9860
▁Food	-9861
▁Gill	-9862
▁List	-9863
▁Panz	-9864
▁Prix	-9865
▁Thir	-9866
▁caps	-9867
▁clay	-9868
▁dual	-9869
▁enzy	-9870
▁forg	-9871
▁pron	-9872
▁salv	-9873
elaide	-9874
ficial	-9875
lights	-9876
riarch	-9877
▁Bobby	-9878
▁Bruce	-9879
▁Cater	-9880
▁Chron	-9881
▁Honor	-9882
▁Nosek	-9883
▁Valve	-9884
▁celeb	-9885
▁ideal	-9886
▁juven	-9887
▁knock	-9888
▁phone	-9889
▁wives	-9890
achment	-9891
hemical	-9892
uations	-9893
▁Cullen	-9894
▁Dudley	-9895
▁Guadal	-9896
▁Impact	-9897
▁Johnny	-9898
▁Parker	-9899
▁Sisler	-9900
▁Tigers	-9901
▁ashore	-9902
▁cancel	-9903
▁convey	-9904
▁danger	-9905
▁export	-9906
▁induct	-9907
▁integr	-9908
▁naming	-9909
▁riding	-9910
▁rulers	-9911
▁seized	-9912
▁shrine	-9913
▁tonnes	-9914
▁trails	-9915
▁varied	-9916
ansfield	-9917
▁Belgian	-9918
▁Credits	-9919
▁Digital	-9920
▁Gardner	-9921
▁Indians	-9922
▁Sorraia	-9923
▁affairs	-9924
▁charted	-9925
▁clothes	-9926
▁knocked	-9927
▁passion	-9928
▁revival	-9929
▁shallow	-9930
▁updated	-9931
▁Adelaide	-9932
▁Sanskrit	-9933
▁attitude	-9934
▁colossal	-9935
▁eastward	-9936
▁familiar	-9937
▁forecast	-9938
▁requires	-9939
▁Kawaguchi	-9940
▁Represent	-9941
▁Tetrarchs	-9942
▁Woodhouse	-9943
▁cancelled	-9944
▁certainly	-9945
▁daughters	-9946
▁estimates	-9947
▁perceived	-9948
▁qualified	-9949
▁questions	-9950
▁reduction	-9951
▁weakening	-9952
▁Operations	-9953
▁candidates	-9954
▁continuous	-9955
▁convention	-9956
▁positively	-9957
▁registered	-9958
▁reportedly	-9959
▁submarines	-9960
▁archaeology	-9961
▁photographs	-9962
▁Intelligence	-9963
▁measurements	-9964
▁transmission	-9965
ED	-9966
FL	-9967
Sh	-9968
ds	-9969
tz	-9970
III	-9971
arc	-9972
▁Pu	-9973
▁aw	-9974
ante	-9975
avor	-9976
budo	-9977
olin	-9978
oned	-9979
orks	-9980
orms	-9981
raid	-9982
soft	-9983
▁Ful	-9984
▁Got	-9985
▁Kau	-9986
▁McE	-9987
▁Mix	-9988
▁Rat	-9989
▁Rav	-9990
▁Sac	-9991
▁Sel	-9992
▁Tow	-9993
▁Vis	-9994
▁dod	-9995
▁jew	-9996
▁liv	-9997
▁ram	-9998
▁tet	-9999
▁tox	-10000
▁ump	-10001
aceae	-10002
andra	-10003
eling	-10004
eness	-10005
guard	-10006
odont	-10007
oping	-10008
uther	-10009
venge	-10010
yclic	-10011
▁Bidd	-10012
▁Bird	-10013
▁Cart	-10014
▁Dead	-10015
▁Deep	-10016
▁Ford	-10017
▁Pole	-10018
▁Ster	-10019
▁Task	-10020
▁Veer	-10021
▁WASP	-10022
▁barr	-10023
▁brut	-10024
▁code	-10025
▁shop	-10026
earing	-10027
hester	-10028
ishops	-10029
reated	-10030
rieved	-10031
terior	-10032
▁Dance	-10033
▁Dover	-10034
▁Idaho	-10035
▁Joint	-10036
▁Lakes	-10037
▁Neves	-10038
▁Plate	-10039
▁Sioux	-10040
▁accum	-10041
▁audio	-10042
▁flesh	-10043
▁lying	-10044
▁queen	-10045
▁ranks	-10046
▁tubes	-10047
▁usual	-10048
▁zones	-10049
▁Briggs	-10050
▁Imbudo	-10051
▁Ingres	-10052
▁Observ	-10053
▁Telugu	-10054
▁Twenty	-10055
▁backed	-10056
▁cinema	-10057
▁compre	-10058
▁endors	-10059
▁finale	-10060
▁fusion	-10061
▁reward	-10062
▁slopes	-10063
▁tenure	-10064
▁tissue	-10065
▁Bristol	-10066
▁Defense	-10067
▁Jardine	-10068
▁Nettles	-10069
▁diamond	-10070
▁failing	-10071
▁fastest	-10072
▁genetic	-10073
▁illness	-10074
▁lacking	-10075
▁minimal	-10076
▁pursuit	-10077
▁reaches	-10078
▁replied	-10079
▁rescued	-10080
▁roadway	-10081
▁superst	-10082
▁unclear	-10083
▁commands	-10084
▁doctrine	-10085
▁enlisted	-10086
▁recovery	-10087
▁relieved	-10088
▁vertebra	-10089
▁Argentine	-10090
▁Biddenden	-10091
▁Cresswell	-10092
▁Paramount	-10093
▁Professor	-10094
▁depiction	-10095
▁extending	-10096
▁hospitals	-10097
▁machinery	-10098
▁relatives	-10099
▁searching	-10100
▁Chronicles	-10101
▁archbishop	-10102
▁commenting	-10103
▁deployment	-10104
▁employment	-10105
▁successive	-10106
▁understood	-10107
▁dissipating	-10108
▁immigration	-10109
▁anekāntavāda	-10110
▁significance	-10111
AR	-10112
Ar	-10113
ja	-10114
bie	-10115
gas	-10116
rav	-10117
rip	-10118
▁HM	-10119
▁da	-10120
Tube	-10121
ambo	-10122
azer	-10123
isle	-10124
izal	-10125
oyle	-10126
sole	-10127
▁Hem	-10128
▁Lad	-10129
▁Zap	-10130
▁fir	-10131
▁gor	-10132
agers	-10133
anzib	-10134
brace	-10135
herry	-10136
ocity	-10137
phant	-10138
place	-10139
ycake	-10140
▁ARVN	-10141
▁José	-10142
▁Utah	-10143
▁Visc	-10144
▁boil	-10145
▁copy	-10146
▁fame	-10147
▁push	-10148
▁shru	-10149
▁soci	-10150
▁wore	-10151
ounced	-10152
ylogen	-10153
▁Dersh	-10154
▁Guild	-10155
▁Magic	-10156
▁Parks	-10157
▁Prote	-10158
▁Randy	-10159
▁Usher	-10160
▁acute	-10161
▁ghost	-10162
▁lover	-10163
▁ports	-10164
▁venue	-10165
▁walks	-10166
regular	-10167
▁Almost	-10168
▁Chrono	-10169
▁Dennis	-10170
▁Ground	-10171
▁Indies	-10172
▁Places	-10173
▁Sultan	-10174
▁Triple	-10175
▁Valent	-10176
▁Zanzib	-10177
▁abroad	-10178
▁autumn	-10179
▁doctor	-10180
▁exclud	-10181
▁execut	-10182
▁factor	-10183
▁golden	-10184
▁horror	-10185
▁jungle	-10186
▁mental	-10187
▁rivals	-10188
▁talent	-10189
▁warned	-10190
ressions	-10191
▁Alberta	-10192
▁Amanita	-10193
▁Bennett	-10194
▁Burmese	-10195
▁Canning	-10196
▁Russell	-10197
▁YouTube	-10198
▁arguing	-10199
▁backing	-10200
▁comfort	-10201
▁exactly	-10202
▁flowers	-10203
▁gaining	-10204
▁heavier	-10205
▁hitting	-10206
▁hostile	-10207
▁persist	-10208
▁persons	-10209
▁prefect	-10210
▁puzzles	-10211
▁revenue	-10212
▁sailors	-10213
▁shifted	-10214
▁Arkansas	-10215
▁Mitchell	-10216
▁category	-10217
▁demanded	-10218
▁magnetic	-10219
▁merchant	-10220
▁phenomen	-10221
▁pregnant	-10222
▁presents	-10223
▁publicly	-10224
▁rotation	-10225
▁stronger	-10226
ographical	-10227
▁Nevesinje	-10228
▁Pattycake	-10229
▁exhausted	-10230
▁molecular	-10231
▁ownership	-10232
▁permitted	-10233
▁proceeded	-10234
▁recurring	-10235
▁signature	-10236
▁synthesis	-10237
▁wrestling	-10238
▁Dershowitz	-10239
▁Wellington	-10240
▁biological	-10241
▁consistent	-10242
▁constantly	-10243
▁controller	-10244
▁households	-10245
▁mainstream	-10246
▁repeatedly	-10247
▁succession	-10248
▁bombardment	-10249
▁historically	-10250
▁manufacturing	-10251
EA	-10252
Xe	-10253
hr	-10254
bow	-10255
bro	-10256
cut	-10257
din	-10258
ario	-10259
atha	-10260
awak	-10261
enna	-10262
erto	-10263
inaw	-10264
oons	-10265
owed	-10266
▁Aud	-10267
▁Box	-10268
▁Fut	-10269
▁Had	-10270
▁Ins	-10271
▁Kid	-10272
▁Pic	-10273
▁Tak	-10274
▁Wik	-10275
▁fru	-10276
ambia	-10277
brush	-10278
cover	-10279
ested	-10280
itely	-10281
ospel	-10282
uters	-10283
▁Coal	-10284
▁Gael	-10285
▁Holl	-10286
▁Iowa	-10287
▁Neil	-10288
▁Pohl	-10289
▁Tong	-10290
▁Weir	-10291
▁heir	-10292
▁ibis	-10293
▁incl	-10294
▁intr	-10295
▁lect	-10296
▁mini	-10297
▁nose	-10298
▁sick	-10299
▁tape	-10300
atever	-10301
linger	-10302
▁Andre	-10303
▁Krist	-10304
▁Lloyd	-10305
▁Stand	-10306
▁Tales	-10307
▁accus	-10308
▁bonus	-10309
▁conce	-10310
▁enorm	-10311
▁reper	-10312
▁shirt	-10313
▁stern	-10314
▁waves	-10315
atorial	-10316
ivation	-10317
▁Batter	-10318
▁Garden	-10319
▁Hannah	-10320
▁beings	-10321
▁census	-10322
▁extend	-10323
▁finest	-10324
▁hamper	-10325
▁margin	-10326
▁myster	-10327
▁precip	-10328
▁retail	-10329
▁shield	-10330
▁stabil	-10331
▁Jackets	-10332
▁Kenneth	-10333
▁Preston	-10334
▁bombers	-10335
▁cutting	-10336
▁density	-10337
▁distrib	-10338
▁dressed	-10339
▁farmers	-10340
▁funeral	-10341
▁gravity	-10342
▁pushing	-10343
▁renewed	-10344
▁revived	-10345
▁stellar	-10346
ibilities	-10347
▁Cemetery	-10348
▁argument	-10349
▁coverage	-10350
▁drinking	-10351
▁lifetime	-10352
▁petition	-10353
▁pictures	-10354
▁printing	-10355
▁resemble	-10356
▁reviewed	-10357
▁steadily	-10358
▁Yorkshire	-10359
▁animation	-10360
▁campaigns	-10361
▁champions	-10362
▁guitarist	-10363
▁increases	-10364
▁irregular	-10365
▁peninsula	-10366
▁persisted	-10367
▁seriously	-10368
▁testified	-10369
▁challenged	-10370
▁occasional	-10371
▁questioned	-10372
▁songwriter	-10373
▁grandfather	-10374
▁promotional	-10375
▁speculation	-10376
▁subtropical	-10377
▁arrangements	-10378
▁compositions	-10379
▁predominantly	-10380
CE	-10381
CU	-10382
VP	-10383
ss	-10384
RNA	-10385
aja	-10386
alo	-10387
iga	-10388
iná	-10389
net	-10390
xim	-10391
▁Zh	-10392
asha	-10393
ipel	-10394
olly	-10395
oric	-10396
osph	-10397
uras	-10398
▁Eth	-10399
▁Heb	-10400
▁IRA	-10401
▁Rab	-10402
▁Reb	-10403
▁Sag	-10404
▁Wol	-10405
▁jaw	-10406
▁jet	-10407
▁mud	-10408
▁unw	-10409
agger	-10410
arest	-10411
azing	-10412
dream	-10413
eries	-10414
rooms	-10415
▁Bour	-10416
▁Eccl	-10417
▁Kate	-10418
▁Kiss	-10419
▁Pete	-10420
▁Ship	-10421
▁Skin	-10422
▁acre	-10423
▁bull	-10424
▁earn	-10425
▁murd	-10426
▁nave	-10427
▁reag	-10428
▁reop	-10429
apolis	-10430
inness	-10431
penter	-10432
▁Cooke	-10433
▁Grace	-10434
▁Isesi	-10435
▁Laure	-10436
▁Leeds	-10437
▁Nadal	-10438
▁Pound	-10439
▁Serbs	-10440
▁Tommy	-10441
▁angle	-10442
▁cease	-10443
▁deals	-10444
▁guide	-10445
▁morph	-10446
▁overs	-10447
▁popul	-10448
▁portr	-10449
▁posts	-10450
▁ruins	-10451
▁sanct	-10452
▁scrap	-10453
▁sings	-10454
▁taxon	-10455
▁tours	-10456
mingham	-10457
usaders	-10458
▁Contem	-10459
▁Gaelic	-10460
▁Harris	-10461
▁Hoover	-10462
▁Jeremy	-10463
▁Madero	-10464
▁Nelson	-10465
▁Spacey	-10466
▁Toniná	-10467
▁ceased	-10468
▁chicks	-10469
▁legacy	-10470
▁metall	-10471
▁mortar	-10472
▁myself	-10473
▁summar	-10474
▁unrest	-10475
▁Baptist	-10476
▁Cricket	-10477
▁Everton	-10478
▁Gregory	-10479
▁Lessing	-10480
▁Looking	-10481
▁Members	-10482
▁Mission	-10483
▁Senator	-10484
▁Warrior	-10485
▁advised	-10486
▁continu	-10487
▁discont	-10488
▁extinct	-10489
▁guarant	-10490
▁marking	-10491
▁storage	-10492
▁streams	-10493
▁threats	-10494
▁volumes	-10495
▁Daydream	-10496
▁Railroad	-10497
▁absorbed	-10498
▁agencies	-10499
▁audition	-10500
▁commerce	-10501
▁constitu	-10502
▁descript	-10503
▁external	-10504
▁intellig	-10505
▁involves	-10506
▁memories	-10507
▁praising	-10508
▁preserve	-10509
▁velocity	-10510
▁explosive	-10511
▁landscape	-10512
▁measuring	-10513
▁occurring	-10514
▁pregnancy	-10515
▁recruited	-10516
▁Birmingham	-10517
▁authorized	-10518
▁commitment	-10519
▁helicopter	-10520
▁homosexual	-10521
▁processing	-10522
▁remarkable	-10523
▁Performance	-10524
▁continental	-10525
▁examination	-10526
▁exploration	-10527
▁announcement	-10528
▁Administration	-10529
▁representatives	-10530
nh	-10531
emi	-10532
ito	-10533
pur	-10534
▁Cu	-10535
▁DS	-10536
▁Ok	-10537
▁Pa	-10538
▁pp	-10539
alsa	-10540
anch	-10541
asco	-10542
atum	-10543
egas	-10544
face	-10545
iley	-10546
inae	-10547
itis	-10548
oves	-10549
wall	-10550
▁Bes	-10551
▁Bog	-10552
▁Hub	-10553
▁Lam	-10554
▁Ost	-10555
▁Pil	-10556
▁Pra	-10557
▁RAF	-10558
▁Ric	-10559
▁Set	-10560
▁Sud	-10561
▁Tac	-10562
▁Tar	-10563
▁ath	-10564
▁sav	-10565
andal	-10566
aping	-10567
ework	-10568
phone	-10569
ringe	-10570
rowed	-10571
stown	-10572
uzzle	-10573
▁Boog	-10574
▁Bull	-10575
▁Isle	-10576
▁Name	-10577
▁Nine	-10578
▁Than	-10579
▁Whit	-10580
▁boot	-10581
▁gene	-10582
▁mood	-10583
▁scre	-10584
icking	-10585
luence	-10586
veland	-10587
▁Begin	-10588
▁Derff	-10589
▁Fried	-10590
▁Globe	-10591
▁Liter	-10592
▁Lover	-10593
▁Movie	-10594
▁Still	-10595
▁Vegas	-10596
▁camer	-10597
▁gusts	-10598
▁helps	-10599
▁logic	-10600
▁noble	-10601
▁prize	-10602
▁quiet	-10603
▁sympt	-10604
▁troop	-10605
▁Barbar	-10606
▁Commer	-10607
▁Darwin	-10608
▁Dwight	-10609
▁Import	-10610
▁Justin	-10611
▁Living	-10612
▁Manuel	-10613
▁Newman	-10614
▁acoust	-10615
▁afford	-10616
▁ascend	-10617
▁ballad	-10618
▁blacks	-10619
▁compan	-10620
▁cousin	-10621
▁curved	-10622
▁faster	-10623
▁limits	-10624
▁lumber	-10625
▁mounts	-10626
▁palace	-10627
▁roller	-10628
▁summit	-10629
▁verses	-10630
▁volcan	-10631
issioned	-10632
urrently	-10633
▁Brother	-10634
▁Marshal	-10635
▁Popular	-10636
▁Seattle	-10637
▁Support	-10638
▁acyclic	-10639
▁consent	-10640
▁cougars	-10641
▁distant	-10642
▁predict	-10643
▁rounded	-10644
▁sending	-10645
▁speaker	-10646
▁tickets	-10647
▁undergo	-10648
ationally	-10649
▁Internet	-10650
▁Security	-10651
▁Viscount	-10652
▁counterp	-10653
▁insisted	-10654
▁Cleveland	-10655
▁Hampshire	-10656
▁Parachute	-10657
▁Southeast	-10658
▁Stavanger	-10659
▁Telegraph	-10660
▁aftermath	-10661
▁alignment	-10662
▁brilliant	-10663
▁condemned	-10664
▁directing	-10665
▁distances	-10666
▁fragments	-10667
▁preceding	-10668
▁predicted	-10669
▁traveling	-10670
▁Allosaurus	-10671
▁Undertaker	-10672
▁calculated	-10673
▁destroying	-10674
▁downstream	-10675
▁variations	-10676
▁agriculture	-10677
▁collections	-10678
▁complicated	-10679
▁conjunction	-10680
▁connections	-10681
▁disappeared	-10682
▁surrendered	-10683
▁Christianity	-10684
▁consistently	-10685
▁interactions	-10686
▁concentration	-10687
▁parliamentary	-10688
IP	-10689
pa	-10690
ikk	-10691
oub	-10692
run	-10693
▁CN	-10694
▁Cz	-10695
▁Eg	-10696
▁Mā	-10697
▁Zr	-10698
▁ho	-10699
acan	-10700
anga	-10701
anka	-10702
arov	-10703
eals	-10704
idal	-10705
itsu	-10706
▁Arn	-10707
▁Cow	-10708
▁Fit	-10709
▁HNC	-10710
▁MVP	-10711
▁Occ	-10712
▁mal	-10713
▁nep	-10714
eland	-10715
iscus	-10716
romet	-10717
ships	-10718
▁Beau	-10719
▁Boat	-10720
▁Gran	-10721
▁Halo	-10722
▁Laud	-10723
▁MDOT	-10724
▁Pear	-10725
▁Ring	-10726
▁Sega	-10727
▁Stat	-10728
▁True	-10729
▁XIII	-10730
▁atop	-10731
▁clar	-10732
▁danc	-10733
▁gran	-10734
▁icon	-10735
▁mild	-10736
▁rejo	-10737
▁reun	-10738
▁rout	-10739
▁torn	-10740
▁unst	-10741
action	-10742
oulder	-10743
schild	-10744
season	-10745
street	-10746
uating	-10747
ulates	-10748
wegian	-10749
▁Arabs	-10750
▁Asahi	-10751
▁Chand	-10752
▁Edson	-10753
▁Humph	-10754
▁Isles	-10755
▁Larry	-10756
▁Marge	-10757
▁Month	-10758
▁Māori	-10759
▁Opera	-10760
▁Small	-10761
▁Symph	-10762
▁Worth	-10763
▁canon	-10764
▁casem	-10765
▁enlar	-10766
▁flies	-10767
▁grade	-10768
▁maneu	-10769
▁medal	-10770
▁resid	-10771
▁supre	-10772
▁sweet	-10773
▁taste	-10774
iblical	-10775
istical	-10776
▁Action	-10777
▁Combat	-10778
▁Corpus	-10779
▁Graham	-10780
▁beaten	-10781
▁cattle	-10782
▁couldn	-10783
▁desper	-10784
▁exceed	-10785
▁guides	-10786
▁hoping	-10787
▁operas	-10788
▁penetr	-10789
▁pistol	-10790
▁planes	-10791
▁thrown	-10792
▁vertex	-10793
▁voices	-10794
▁Angelou	-10795
▁Christi	-10796
▁Coldrum	-10797
▁Morning	-10798
▁Newport	-10799
▁Romania	-10800
▁Wyoming	-10801
▁bowling	-10802
▁denomin	-10803
▁disrupt	-10804
▁heading	-10805
▁ignored	-10806
▁matters	-10807
▁tunnels	-10808
▁wickets	-10809
itchcraft	-10810
▁Margaret	-10811
▁Services	-10812
▁Training	-10813
▁airborne	-10814
▁aviation	-10815
▁habitats	-10816
▁incomple	-10817
▁leukemia	-10818
▁mentions	-10819
▁offshore	-10820
▁segments	-10821
▁thirteen	-10822
▁valuable	-10823
▁Aftermath	-10824
▁Companies	-10825
▁Fernandez	-10826
▁Labyrinth	-10827
▁Rifenburg	-10828
▁celebrate	-10829
▁communist	-10830
▁confusion	-10831
▁dependent	-10832
▁exclusive	-10833
▁limestone	-10834
▁releasing	-10835
▁relegated	-10836
▁sensitive	-10837
▁violation	-10838
▁amphibious	-10839
▁counteratt	-10840
▁diplomatic	-10841
▁investment	-10842
▁progressed	-10843
▁Derfflinger	-10844
▁Nightingale	-10845
▁improvement	-10846
▁partnership	-10847
▁transformed	-10848
▁deliberately	-10849
▁presidential	-10850
▁requirements	-10851
▁restrictions	-10852
eh	-10853
aba	-10854
abl	-10855
aze	-10856
fam	-10857
hog	-10858
igs	-10859
occ	-10860
omo	-10861
osy	-10862
tym	-10863
▁RI	-10864
▁UP	-10865
anya	-10866
apur	-10867
atem	-10868
atis	-10869
atra	-10870
ayne	-10871
irts	-10872
olyn	-10873
phal	-10874
rink	-10875
▁Aff	-10876
▁Alg	-10877
▁Aub	-10878
▁Dot	-10879
▁Kal	-10880
▁Kem	-10881
▁Myc	-10882
▁Ord	-10883
▁Rul	-10884
▁Spe	-10885
▁Yam	-10886
▁pec	-10887
▁tag	-10888
canal	-10889
icism	-10890
iller	-10891
izers	-10892
odium	-10893
ormal	-10894
osity	-10895
▁Ariz	-10896
▁Brun	-10897
▁Jess	-10898
▁Kody	-10899
▁Kyle	-10900
▁Rand	-10901
▁Room	-10902
▁Site	-10903
▁Sora	-10904
▁Stop	-10905
▁Uran	-10906
▁alco	-10907
▁cash	-10908
▁cosm	-10909
▁forb	-10910
▁hind	-10911
▁outs	-10912
▁punt	-10913
▁trio	-10914
▁unre	-10915
blazer	-10916
eltown	-10917
itches	-10918
itects	-10919
itudes	-10920
olence	-10921
quatic	-10922
▁Burma	-10923
▁Cecil	-10924
▁Cloud	-10925
▁Cyrus	-10926
▁Files	-10927
▁Horiz	-10928
▁Lucas	-10929
▁Plaza	-10930
▁Remix	-10931
▁Trees	-10932
▁Trond	-10933
▁Troph	-10934
▁apply	-10935
▁corps	-10936
▁dying	-10937
▁filed	-10938
▁flows	-10939
▁funny	-10940
▁gills	-10941
▁incur	-10942
▁laugh	-10943
▁price	-10944
▁sheep	-10945
▁smoke	-10946
▁truly	-10947
inished	-10948
▁Bedell	-10949
▁Colomb	-10950
▁Comedy	-10951
▁Monkey	-10952
▁Olivia	-10953
▁decide	-10954
▁device	-10955
▁garden	-10956
▁heroes	-10957
▁hiatus	-10958
▁lawyer	-10959
▁manage	-10960
▁rubber	-10961
▁scorer	-10962
▁trains	-10963
▁visits	-10964
etheless	-10965
▁Carolyn	-10966
▁Kennedy	-10967
▁Mantell	-10968
▁acclaim	-10969
▁antagon	-10970
▁avoided	-10971
▁casting	-10972
▁circuit	-10973
▁confron	-10974
▁convict	-10975
▁divorce	-10976
▁drivers	-10977
▁enabled	-10978
▁experts	-10979
▁justice	-10980
▁locally	-10981
▁multipl	-10982
▁radical	-10983
▁travels	-10984
▁venture	-10985
▁Antimony	-10986
▁Jurchens	-10987
▁Personal	-10988
▁chapters	-10989
▁circular	-10990
▁mathemat	-10991
▁minority	-10992
▁teammate	-10993
▁vocalist	-10994
▁Beginning	-10995
▁Egyptians	-10996
▁Melbourne	-10997
▁Norwegian	-10998
▁addressed	-10999
▁frequency	-11000
▁infection	-11001
▁shipments	-11002
▁sponsored	-11003
▁torpedoes	-11004
▁twentieth	-11005
▁universal	-11006
▁Bradstreet	-11007
▁Millennium	-11008
▁Rothschild	-11009
▁Zealanders	-11010
▁contradict	-11011
▁dispatched	-11012
▁laboratory	-11013
▁Palestinian	-11014
▁essentially	-11015
▁manuscripts	-11016
▁territorial	-11017
▁Contemporary	-11018
▁complimented	-11019
▁interpretation	-11020
CW	-11021
ín	-11022
bal	-11023
col	-11024
ece	-11025
iph	-11026
uto	-11027
▁Gw	-11028
▁IA	-11029
▁Lt	-11030
▁Ob	-11031
▁Ze	-11032
Down	-11033
aple	-11034
arya	-11035
case	-11036
ikes	-11037
ilis	-11038
inai	-11039
lane	-11040
odox	-11041
ribe	-11042
▁IOC	-11043
▁Lat	-11044
▁Lyn	-11045
▁Tun	-11046
▁ing	-11047
▁nut	-11048
▁sib	-11049
▁tel	-11050
▁vir	-11051
Works	-11052
asted	-11053
enson	-11054
eston	-11055
heric	-11056
ushes	-11057
▁Ages	-11058
▁Assy	-11059
▁Bosn	-11060
▁Buff	-11061
▁Crab	-11062
▁Data	-11063
▁Etty	-11064
▁Expl	-11065
▁Mond	-11066
▁Serb	-11067
▁Shim	-11068
▁dawn	-11069
▁eval	-11070
▁fart	-11071
▁garn	-11072
▁genu	-11073
▁knee	-11074
▁loop	-11075
▁pret	-11076
▁scen	-11077
▁soph	-11078
▁wolf	-11079
▁zomb	-11080
anther	-11081
erning	-11082
igious	-11083
ongsan	-11084
orough	-11085
overed	-11086
pected	-11087
ritage	-11088
tering	-11089
▁Clara	-11090
▁Eliot	-11091
▁Homar	-11092
▁Leban	-11093
▁Sarah	-11094
▁Sinai	-11095
▁Sixth	-11096
▁Stars	-11097
▁Stein	-11098
▁Stela	-11099
▁Zagre	-11100
▁abuse	-11101
▁adequ	-11102
▁arose	-11103
▁auton	-11104
▁balls	-11105
▁crick	-11106
▁curve	-11107
▁dozen	-11108
▁fires	-11109
▁hosts	-11110
▁liner	-11111
▁links	-11112
▁lumin	-11113
▁moist	-11114
▁rever	-11115
▁rings	-11116
▁saint	-11117
▁sixty	-11118
▁skill	-11119
▁sword	-11120
▁tombs	-11121
▁uncom	-11122
▁waste	-11123
athetic	-11124
issions	-11125
veloped	-11126
▁Bright	-11127
▁Guatem	-11128
▁Hebrew	-11129
▁Joyful	-11130
▁Legend	-11131
▁Regard	-11132
▁Ulster	-11133
▁affair	-11134
▁alphab	-11135
▁breaks	-11136
▁canals	-11137
▁expand	-11138
▁funded	-11139
▁halted	-11140
▁infilt	-11141
▁intact	-11142
▁lifted	-11143
▁movies	-11144
▁paying	-11145
▁puppet	-11146
▁quoted	-11147
▁radius	-11148
▁sacrif	-11149
▁salary	-11150
▁scream	-11151
▁subord	-11152
▁unless	-11153
▁wonder	-11154
▁Actress	-11155
▁Arizona	-11156
▁Bernard	-11157
▁Filming	-11158
▁Machine	-11159
▁Maurice	-11160
▁Medical	-11161
▁Mongols	-11162
▁Players	-11163
▁Princip	-11164
▁Tristan	-11165
▁Wallace	-11166
▁arrives	-11167
▁athlete	-11168
▁barrier	-11169
▁imposed	-11170
▁invaded	-11171
▁jumping	-11172
▁loading	-11173
▁lyrical	-11174
▁marched	-11175
▁neutron	-11176
▁Aviation	-11177
▁Nicholas	-11178
▁Portland	-11179
▁Zanzibar	-11180
▁advances	-11181
▁asserted	-11182
▁bodyline	-11183
▁emotions	-11184
▁enormous	-11185
▁founding	-11186
▁gathered	-11187
▁heritage	-11188
▁horizont	-11189
▁landmark	-11190
▁membrane	-11191
▁phylogen	-11192
▁sporting	-11193
▁teachers	-11194
▁universe	-11195
▁weakness	-11196
▁allocated	-11197
▁marketing	-11198
▁populated	-11199
▁realistic	-11200
▁retreated	-11201
▁seemingly	-11202
▁stretched	-11203
▁vertebrae	-11204
▁witnesses	-11205
▁concession	-11206
▁interviews	-11207
▁positioned	-11208
▁propaganda	-11209
▁provincial	-11210
▁storylines	-11211
▁Composition	-11212
▁Guadalcanal	-11213
▁centimetres	-11214
▁competitive	-11215
▁destination	-11216
▁highlighted	-11217
▁progression	-11218
▁tributaries	-11219
▁acknowledged	-11220
▁improvements	-11221
▁intellectual	-11222
▁overwhelming	-11223
éd	-11224
aos	-11225
ihu	-11226
ioc	-11227
isa	-11228
orf	-11229
rin	-11230
zes	-11231
▁CS	-11232
▁Ko	-11233
▁Wa	-11234
▁Wu	-11235
ache	-11236
aulk	-11237
fish	-11238
olia	-11239
ondo	-11240
oret	-11241
star	-11242
uees	-11243
ught	-11244
uros	-11245
▁Aqu	-11246
▁Cov	-11247
▁Fur	-11248
▁Ker	-11249
▁NFL	-11250
▁Raf	-11251
▁Rub	-11252
▁Sox	-11253
▁bag	-11254
▁gay	-11255
▁nic	-11256
▁une	-11257
▁urg	-11258
▁vig	-11259
agoda	-11260
gehog	-11261
ifest	-11262
ighed	-11263
inisc	-11264
inter	-11265
isive	-11266
lides	-11267
olics	-11268
onian	-11269
oting	-11270
overy	-11271
raits	-11272
thren	-11273
▁Clay	-11274
▁Cret	-11275
▁Curt	-11276
▁Farm	-11277
▁NASA	-11278
▁Past	-11279
▁Tang	-11280
▁Vent	-11281
▁Verm	-11282
▁View	-11283
▁Wald	-11284
▁amid	-11285
▁calm	-11286
▁cens	-11287
▁duet	-11288
▁mate	-11289
▁merc	-11290
▁pill	-11291
▁pink	-11292
▁rays	-11293
▁rush	-11294
▁terr	-11295
▁ward	-11296
▁worn	-11297
alling	-11298
anelli	-11299
atters	-11300
cially	-11301
idated	-11302
keeper	-11303
▁Ayola	-11304
▁Billy	-11305
▁Brack	-11306
▁Charm	-11307
▁Dress	-11308
▁Jimmy	-11309
▁Level	-11310
▁Motor	-11311
▁Navar	-11312
▁Smack	-11313
▁aided	-11314
▁aside	-11315
▁genes	-11316
▁loved	-11317
▁pseud	-11318
▁radar	-11319
▁satir	-11320
▁surge	-11321
▁uncle	-11322
▁wound	-11323
hensive	-11324
isional	-11325
ruption	-11326
thening	-11327
umbered	-11328
▁Beeton	-11329
▁Brenda	-11330
▁Creutz	-11331
▁Europa	-11332
▁Hughes	-11333
▁Inside	-11334
▁Marcus	-11335
▁Period	-11336
▁Reagan	-11337
▁Staley	-11338
▁Zagreb	-11339
▁allies	-11340
▁autobi	-11341
▁cannon	-11342
▁colors	-11343
▁eating	-11344
▁fertil	-11345
▁gentle	-11346
▁happen	-11347
▁invent	-11348
▁kicked	-11349
▁loaded	-11350
▁miners	-11351
▁parade	-11352
▁Complex	-11353
▁Destroy	-11354
▁Haitian	-11355
▁Knights	-11356
▁Officer	-11357
▁Plateau	-11358
▁Skinner	-11359
▁Streets	-11360
▁Weather	-11361
▁Wrapped	-11362
▁Yongsan	-11363
▁console	-11364
▁dealing	-11365
▁devoted	-11366
▁dynamic	-11367
▁explore	-11368
▁frigate	-11369
▁kickoff	-11370
▁aerodrom	-11371
▁centered	-11372
▁defenses	-11373
▁disabled	-11374
▁graduate	-11375
▁inducted	-11376
▁opinions	-11377
▁reversed	-11378
▁sculpted	-11379
▁Cambodian	-11380
▁Palmyrene	-11381
▁SmackDown	-11382
▁Trondheim	-11383
▁associate	-11384
▁attending	-11385
▁dispersed	-11386
▁excellent	-11387
▁exhibited	-11388
▁inaugural	-11389
▁ministers	-11390
▁neighbour	-11391
▁platforms	-11392
▁prompting	-11393
▁sexuality	-11394
▁stability	-11395
▁surprised	-11396
▁Cretaceous	-11397
▁Ecclestone	-11398
▁Hellblazer	-11399
▁Industrial	-11400
▁developers	-11401
▁membership	-11402
▁unexpected	-11403
▁battlefield	-11404
▁challenging	-11405
▁consequence	-11406
▁declaration	-11407
▁educational	-11408
▁fundamental	-11409
▁investigate	-11410
▁legislature	-11411
▁observatory	-11412
▁outstanding	-11413
▁permanently	-11414
▁politicians	-11415
▁congregation	-11416
▁intermediate	-11417
▁similarities	-11418
▁sufficiently	-11419
▁Archaeological	-11420
BI	-11421
iki	-11422
nyi	-11423
oni	-11424
▁Hi	-11425
▁Kr	-11426
▁MP	-11427
▁Py	-11428
▁kW	-11429
▁ty	-11430
aloo	-11431
eing	-11432
nall	-11433
ribi	-11434
riff	-11435
ripp	-11436
▁Bry	-11437
▁Fat	-11438
▁Fro	-11439
▁Inv	-11440
▁Lem	-11441
▁Liz	-11442
▁Oak	-11443
▁Rud	-11444
▁isn	-11445
▁mit	-11446
▁oak	-11447
▁unt	-11448
abric	-11449
aduct	-11450
illes	-11451
isons	-11452
music	-11453
ourag	-11454
▁Chad	-11455
▁Days	-11456
▁Exit	-11457
▁Full	-11458
▁Gene	-11459
▁Hair	-11460
▁Hein	-11461
▁Ming	-11462
▁Papa	-11463
▁Pink	-11464
▁Prop	-11465
▁Shan	-11466
▁Suez	-11467
▁Todd	-11468
▁Tres	-11469
▁Vick	-11470
▁Vist	-11471
▁Well	-11472
▁ally	-11473
▁beds	-11474
▁culm	-11475
▁hier	-11476
▁pled	-11477
▁quad	-11478
▁riff	-11479
▁sank	-11480
▁scar	-11481
▁seed	-11482
ambers	-11483
dinand	-11484
formed	-11485
ingray	-11486
▁Cinem	-11487
▁Crash	-11488
▁Czech	-11489
▁Doyle	-11490
▁Drive	-11491
▁Fight	-11492
▁Grant	-11493
▁Hobbs	-11494
▁Mayor	-11495
▁Singh	-11496
▁Total	-11497
▁Winds	-11498
▁Wrest	-11499
▁angry	-11500
▁blues	-11501
▁demon	-11502
▁digit	-11503
▁draws	-11504
▁drift	-11505
▁enact	-11506
▁imped	-11507
▁lakes	-11508
▁opens	-11509
▁ratio	-11510
▁repet	-11511
▁shock	-11512
▁trium	-11513
▁urged	-11514
▁users	-11515
ipelago	-11516
ocratic	-11517
rolling	-11518
▁Corbet	-11519
▁Cruise	-11520
▁Durham	-11521
▁Flower	-11522
▁Johann	-11523
▁Leices	-11524
▁Morris	-11525
▁Quiney	-11526
▁Rockef	-11527
▁Ronald	-11528
▁Strong	-11529
▁Trophy	-11530
▁Turkey	-11531
▁Vulcan	-11532
▁agrees	-11533
▁clergy	-11534
▁corrid	-11535
▁crowds	-11536
▁decomm	-11537
▁deeply	-11538
▁fairly	-11539
▁hotels	-11540
▁learns	-11541
▁lights	-11542
▁phosph	-11543
▁plates	-11544
▁rifles	-11545
▁stress	-11546
▁varies	-11547
stituted	-11548
▁Antonio	-11549
▁Denmark	-11550
▁Nazarov	-11551
▁Raymond	-11552
▁Sarawak	-11553
▁Steiner	-11554
▁batsmen	-11555
▁centres	-11556
▁colours	-11557
▁dancing	-11558
▁drafted	-11559
▁fantasy	-11560
▁gallery	-11561
▁grazing	-11562
▁magical	-11563
▁screens	-11564
▁singers	-11565
▁spotted	-11566
▁surpass	-11567
▁Airborne	-11568
▁Franklin	-11569
▁Montreal	-11570
▁Princess	-11571
▁absolute	-11572
▁acoustic	-11573
▁concepts	-11574
▁connects	-11575
▁crickets	-11576
▁damaging	-11577
▁darkness	-11578
▁drainage	-11579
▁dropping	-11580
▁ensemble	-11581
▁estimate	-11582
▁hypothes	-11583
▁monitors	-11584
▁narrator	-11585
▁passages	-11586
▁reminisc	-11587
▁repaired	-11588
▁studying	-11589
▁survival	-11590
▁Ferdinand	-11591
▁Henderson	-11592
▁Lancaster	-11593
▁Regiments	-11594
▁alternate	-11595
▁belonging	-11596
▁conceived	-11597
▁discovers	-11598
▁favourite	-11599
▁identical	-11600
▁portraits	-11601
▁possessed	-11602
▁recognize	-11603
▁substance	-11604
▁volunteer	-11605
▁DreamWorks	-11606
▁acceptable	-11607
▁challenges	-11608
▁conducting	-11609
▁encounters	-11610
▁explaining	-11611
▁qualifying	-11612
▁reservoirs	-11613
▁accommodate	-11614
▁consumption	-11615
▁cyclization	-11616
▁implemented	-11617
▁scholarship	-11618
▁administered	-11619
▁conservative	-11620
▁experimental	-11621
▁intervention	-11622
▁participants	-11623
▁corresponding	-11624
▁revolutionary	-11625
▁unsuccessfully	-11626
FU	-11627
IS	-11628
anj	-11629
gor	-11630
rix	-11631
sts	-11632
ugg	-11633
umi	-11634
▁Aw	-11635
▁BM	-11636
▁CG	-11637
▁Na	-11638
▁Pf	-11639
▁Vo	-11640
adic	-11641
anus	-11642
avan	-11643
boro	-11644
cler	-11645
ctic	-11646
hatt	-11647
iors	-11648
izer	-11649
lyph	-11650
oids	-11651
olph	-11652
oria	-11653
phan	-11654
rice	-11655
tery	-11656
▁Chu	-11657
▁Hak	-11658
▁Ref	-11659
▁Tob	-11660
▁Yet	-11661
▁bin	-11662
iente	-11663
inski	-11664
itime	-11665
outed	-11666
ético	-11667
▁Adri	-11668
▁Anti	-11669
▁Belt	-11670
▁Dian	-11671
▁Fund	-11672
▁Glan	-11673
▁Keys	-11674
▁Kyra	-11675
▁Liao	-11676
▁Mess	-11677
▁Roll	-11678
▁Sche	-11679
▁Want	-11680
▁Yang	-11681
▁bron	-11682
▁bush	-11683
▁fest	-11684
▁fier	-11685
▁misc	-11686
▁subd	-11687
▁zinc	-11688
ailing	-11689
bridge	-11690
htwald	-11691
idding	-11692
outing	-11693
racted	-11694
stones	-11695
unning	-11696
▁Adult	-11697
▁Bloom	-11698
▁Chile	-11699
▁Clear	-11700
▁Faulk	-11701
▁Reign	-11702
▁Ruler	-11703
▁Taxon	-11704
▁anger	-11705
▁clust	-11706
▁dealt	-11707
▁disgu	-11708
▁drown	-11709
▁elite	-11710
▁grain	-11711
▁grows	-11712
▁integ	-11713
▁inver	-11714
▁noise	-11715
▁pione	-11716
▁polar	-11717
▁prest	-11718
▁sleep	-11719
▁spore	-11720
▁tasks	-11721
▁tempo	-11722
▁tools	-11723
▁tribe	-11724
inental	-11725
▁Attack	-11726
▁Career	-11727
▁Carlos	-11728
▁Hockey	-11729
▁Indeed	-11730
▁Reines	-11731
▁Urania	-11732
▁crater	-11733
▁extant	-11734
▁feared	-11735
▁handle	-11736
▁muzzle	-11737
▁relied	-11738
▁rework	-11739
▁staged	-11740
▁statue	-11741
bracelet	-11742
isations	-11743
▁Boulder	-11744
▁Carroll	-11745
▁Culture	-11746
▁Hungary	-11747
▁ceiling	-11748
▁descent	-11749
▁diverse	-11750
▁electro	-11751
▁equally	-11752
▁exhibit	-11753
▁insects	-11754
▁lasting	-11755
▁lawsuit	-11756
▁markets	-11757
▁planets	-11758
▁pressed	-11759
▁promise	-11760
▁scripts	-11761
▁spawned	-11762
▁Aircraft	-11763
▁Atlético	-11764
▁Computer	-11765
▁Cultural	-11766
▁Faulkner	-11767
▁Greatest	-11768
▁Humphrey	-11769
▁asteroid	-11770
▁confused	-11771
▁devotion	-11772
▁evacuate	-11773
▁evacuees	-11774
▁fragment	-11775
▁garnered	-11776
▁handling	-11777
▁ordinary	-11778
▁targeted	-11779
▁tourists	-11780
▁variable	-11781
aziridines	-11782
▁Carpenter	-11783
▁Formation	-11784
▁Neolithic	-11785
▁Therefore	-11786
▁disbanded	-11787
▁gathering	-11788
▁incidents	-11789
▁lifestyle	-11790
▁offerings	-11791
▁perfectly	-11792
▁provinces	-11793
▁suspected	-11794
▁Hurricanes	-11795
▁Partington	-11796
▁advisories	-11797
▁attendance	-11798
▁commanding	-11799
▁comprising	-11800
▁emphasized	-11801
▁friendship	-11802
▁invitation	-11803
▁nineteenth	-11804
▁principles	-11805
▁prohibited	-11806
▁reflecting	-11807
▁traditions	-11808
▁Archaeology	-11809
▁cooperation	-11810
▁distinguish	-11811
▁rectangular	-11812
▁civilization	-11813
▁commentators	-11814
▁conspirators	-11815
▁developments	-11816
▁instructions	-11817
▁intersections	-11818
▁internationally	-11819
IV	-11820
PU	-11821
ho	-11822
mo	-11823
āh	-11824
ali	-11825
gud	-11826
iko	-11827
ked	-11828
rus	-11829
ugs	-11830
▁AN	-11831
▁AS	-11832
▁IR	-11833
▁MI	-11834
ampa	-11835
awny	-11836
beat	-11837
enne	-11838
ibre	-11839
idea	-11840
idia	-11841
inda	-11842
mers	-11843
omon	-11844
onso	-11845
oved	-11846
post	-11847
ques	-11848
▁ATP	-11849
▁Any	-11850
▁Dup	-11851
▁Eve	-11852
▁Hav	-11853
▁Hod	-11854
▁Hyd	-11855
▁Mak	-11856
▁Rut	-11857
▁Saf	-11858
▁bol	-11859
▁cry	-11860
▁dug	-11861
▁fed	-11862
▁jur	-11863
▁sic	-11864
arius	-11865
avian	-11866
backs	-11867
ensed	-11868
ettes	-11869
icken	-11870
ifeng	-11871
omous	-11872
rines	-11873
▁Alfa	-11874
▁Ferr	-11875
▁Forb	-11876
▁Giel	-11877
▁Laur	-11878
▁Mole	-11879
▁Pand	-11880
▁Tank	-11881
▁Tell	-11882
▁Thai	-11883
▁Tuck	-11884
▁Xbox	-11885
▁ages	-11886
▁deer	-11887
▁glac	-11888
▁hung	-11889
▁ment	-11890
▁ther	-11891
ernoot	-11892
herent	-11893
itious	-11894
levard	-11895
terfly	-11896
▁Apart	-11897
▁Based	-11898
▁Julio	-11899
▁Medal	-11900
▁Mkhed	-11901
▁Round	-11902
▁Scots	-11903
▁Start	-11904
▁Trout	-11905
▁blend	-11906
▁cards	-11907
▁chanc	-11908
▁cliff	-11909
▁magic	-11910
▁naked	-11911
▁parad	-11912
▁resur	-11913
▁scope	-11914
▁spear	-11915
▁twins	-11916
▁Austin	-11917
▁Former	-11918
▁Gibson	-11919
▁Greece	-11920
▁Harbor	-11921
▁Intram	-11922
▁Moving	-11923
▁answer	-11924
▁brings	-11925
▁dislik	-11926
▁floods	-11927
▁labour	-11928
▁linear	-11929
▁mining	-11930
▁occupy	-11931
▁remote	-11932
▁skelet	-11933
▁spoken	-11934
▁suburb	-11935
▁suspic	-11936
▁switch	-11937
▁versus	-11938
▁wicket	-11939
overning	-11940
▁Banksia	-11941
▁Gielgud	-11942
▁Kaifeng	-11943
▁Navarro	-11944
▁Pirates	-11945
▁caliber	-11946
▁carrier	-11947
▁connect	-11948
▁dancers	-11949
▁drummer	-11950
▁enthusi	-11951
▁exhaust	-11952
▁extends	-11953
▁involve	-11954
▁leagues	-11955
▁militia	-11956
▁organic	-11957
▁outcome	-11958
▁physics	-11959
▁priests	-11960
▁recruit	-11961
▁refuses	-11962
▁remnant	-11963
▁reorgan	-11964
▁reverse	-11965
▁rivalry	-11966
▁symbols	-11967
▁weighed	-11968
▁Cantrell	-11969
▁Commando	-11970
▁Observer	-11971
▁Superman	-11972
▁Villaret	-11973
▁airports	-11974
▁branches	-11975
▁deposits	-11976
▁frontier	-11977
▁governed	-11978
▁honorary	-11979
▁humanity	-11980
▁likewise	-11981
▁playable	-11982
▁redesign	-11983
▁reserves	-11984
▁sexually	-11985
▁thoughts	-11986
▁Africaine	-11987
▁Brazilian	-11988
▁Catholics	-11989
▁Glanville	-11990
▁Mkhedruli	-11991
▁Retrieved	-11992
▁apartment	-11993
▁boyfriend	-11994
▁chemistry	-11995
▁conscious	-11996
▁convicted	-11997
▁maintains	-11998
▁mechanism	-11999
▁memorable	-12000
▁orchestra	-12001
▁requiring	-12002
▁thickness	-12003
▁Indonesian	-12004
▁Vandernoot	-12005
▁amphibians	-12006
▁confidence	-12007
▁dedication	-12008
▁impressive	-12009
▁mysterious	-12010
▁situations	-12011
▁vulnerable	-12012
▁Confederate	-12013
▁Rockefeller	-12014
▁descendants	-12015
▁expeditions	-12016
▁imagination	-12017
▁prosecution	-12018
▁reminiscent	-12019
▁terrestrial	-12020
▁Consequently	-12021
▁collaborated	-12022
▁commercially	-12023
▁humanitarian	-12024
▁Charmbracelet	-12025
▁Revolutionary	-12026
▁comprehensive	-12027
▁participation	-12028
HS	-12029
OM	-12030
OS	-12031
TA	-12032
UC	-12033
bu	-12034
awi	-12035
cor	-12036
erb	-12037
erp	-12038
ogs	-12039
pts	-12040
sis	-12041
▁DE	-12042
▁Ez	-12043
▁NK	-12044
▁Uk	-12045
▁Uy	-12046
▁Va	-12047
▁mg	-12048
atri	-12049
bach	-12050
bard	-12051
ghan	-12052
itus	-12053
mith	-12054
olar	-12055
onge	-12056
pack	-12057
▁Bod	-12058
▁CPS	-12059
▁Fal	-12060
▁Jas	-12061
▁Kan	-12062
▁Loy	-12063
▁Maj	-12064
▁Mut	-12065
▁Nam	-12066
▁Rey	-12067
▁SMS	-12068
▁Sug	-12069
▁WNO	-12070
▁duo	-12071
▁ine	-12072
▁lig	-12073
▁mad	-12074
▁oct	-12075
▁reh	-12076
aiman	-12077
amics	-12078
angle	-12079
anyan	-12080
court	-12081
found	-12082
hears	-12083
icial	-12084
iency	-12085
itars	-12086
lando	-12087
stage	-12088
uedoc	-12089
▁Amos	-12090
▁Earn	-12091
▁Lung	-12092
▁Maid	-12093
▁McEl	-12094
▁Merc	-12095
▁PopM	-12096
▁Prim	-12097
▁Rook	-12098
▁Sean	-12099
▁Tide	-12100
▁bath	-12101
▁bold	-12102
▁elig	-12103
▁gren	-12104
▁guid	-12105
▁inex	-12106
▁item	-12107
▁lock	-12108
▁musc	-12109
▁naut	-12110
▁outd	-12111
▁perc	-12112
▁rows	-12113
▁tent	-12114
▁thro	-12115
▁wire	-12116
ailand	-12117
boards	-12118
ealous	-12119
ingham	-12120
leased	-12121
master	-12122
oplasm	-12123
rosaur	-12124
ximity	-12125
▁Being	-12126
▁Bhair	-12127
▁Block	-12128
▁Devin	-12129
▁Elgin	-12130
▁Exped	-12131
▁Gabri	-12132
▁Jamie	-12133
▁Rajam	-12134
▁Sport	-12135
▁Syria	-12136
▁buoys	-12137
▁drugs	-12138
▁eagle	-12139
▁fears	-12140
▁holes	-12141
▁lacks	-12142
▁loose	-12143
▁rebel	-12144
▁slave	-12145
▁stair	-12146
▁stanz	-12147
▁steal	-12148
▁stick	-12149
▁swept	-12150
changed	-12151
▁Auburn	-12152
▁Bolton	-12153
▁Clocks	-12154
▁Energy	-12155
▁Flying	-12156
▁Fourth	-12157
▁Ganges	-12158
▁Warner	-12159
▁affect	-12160
▁barely	-12161
▁conven	-12162
▁crimes	-12163
▁detect	-12164
▁gender	-12165
▁honors	-12166
▁indigo	-12167
▁metric	-12168
▁nephew	-12169
▁opined	-12170
▁panels	-12171
▁puzzle	-12172
▁sacked	-12173
▁wished	-12174
▁Barbara	-12175
▁Freakum	-12176
▁Freedom	-12177
▁Genesis	-12178
▁Headlam	-12179
▁Liberal	-12180
▁Orlando	-12181
▁Reviews	-12182
▁cabinet	-12183
▁conform	-12184
▁desired	-12185
▁grasses	-12186
▁options	-12187
▁sailing	-12188
▁samples	-12189
▁secular	-12190
▁staying	-12191
▁tension	-12192
▁therapy	-12193
▁Loverboy	-12194
▁Thompson	-12195
▁carriers	-12196
▁encourag	-12197
▁entirety	-12198
▁exercise	-12199
▁extraord	-12200
▁floating	-12201
▁hampered	-12202
▁maturity	-12203
▁nautical	-12204
▁nickname	-12205
▁prisoner	-12206
▁relating	-12207
▁rendered	-12208
▁resolved	-12209
▁screened	-12210
▁siblings	-12211
▁symptoms	-12212
▁turbines	-12213
▁vertices	-12214
▁Architect	-12215
▁Artillery	-12216
▁Berhtwald	-12217
▁Catherine	-12218
▁Commandos	-12219
▁Gladstone	-12220
▁Indonesia	-12221
▁Josephine	-12222
▁Languedoc	-12223
▁Leicester	-12224
▁Qedarites	-12225
▁Universal	-12226
▁computers	-12227
▁concludes	-12228
▁confident	-12229
▁disturbed	-12230
▁inflicted	-12231
▁inhabited	-12232
▁microscop	-12233
▁mythology	-12234
▁portrayal	-12235
▁presbyter	-12236
▁prototype	-12237
▁sentiment	-12238
▁teachings	-12239
▁Constantin	-12240
▁Intramuros	-12241
▁adventures	-12242
▁immigrants	-12243
▁incomplete	-12244
▁jackrabbit	-12245
▁perception	-12246
▁travelling	-12247
▁Confessions	-12248
▁nationalist	-12249
▁photography	-12250
▁reconstruct	-12251
▁Metropolitan	-12252
▁accidentally	-12253
▁considerably	-12254
▁investigated	-12255
▁Independiente	-12256
▁contributions	-12257
▁fortifications	-12258
▁identification	-12259
él	-12260
abs	-12261
aux	-12262
ema	-12263
rez	-12264
usa	-12265
▁EP	-12266
▁Mh	-12267
▁Ty	-12268
▁rh	-12269
acko	-12270
eria	-12271
heng	-12272
hesh	-12273
igon	-12274
metr	-12275
mund	-12276
oles	-12277
pert	-12278
quir	-12279
quis	-12280
saku	-12281
▁Kub	-12282
▁Luz	-12283
▁Mol	-12284
▁Mom	-12285
▁Pap	-12286
▁Pel	-12287
▁Sak	-12288
▁Wes	-12289
▁asc	-12290
▁lam	-12291
▁lun	-12292
aland	-12293
avery	-12294
iants	-12295
inued	-12296
leans	-12297
opsis	-12298
osion	-12299
othic	-12300
ragon	-12301
▁Beij	-12302
▁Belf	-12303
▁Cann	-12304
▁Chop	-12305
▁Half	-12306
▁Hosp	-12307
▁Karl	-12308
▁Mail	-12309
▁Note	-12310
▁Samp	-12311
▁Sang	-12312
▁Shar	-12313
▁Trad	-12314
▁Weev	-12315
▁Xook	-12316
▁clad	-12317
▁debt	-12318
▁echo	-12319
▁gram	-12320
▁hide	-12321
▁keen	-12322
▁logs	-12323
▁obso	-12324
▁pian	-12325
▁pier	-12326
▁rabb	-12327
▁ramp	-12328
▁sink	-12329
▁tune	-12330
ashire	-12331
escope	-12332
galith	-12333
rained	-12334
▁Baron	-12335
▁Derby	-12336
▁Gacko	-12337
▁Gazan	-12338
▁Loose	-12339
▁Micro	-12340
▁Norse	-12341
▁Quinn	-12342
▁Terry	-12343
▁Thing	-12344
▁cheek	-12345
▁chord	-12346
▁exile	-12347
▁flour	-12348
▁flown	-12349
▁harsh	-12350
▁shall	-12351
▁stall	-12352
▁uncon	-12353
▁Eugene	-12354
▁Julian	-12355
▁Kōsaku	-12356
▁Legisl	-12357
▁Mariah	-12358
▁Market	-12359
▁Others	-12360
▁Potter	-12361
▁Puerto	-12362
▁Vienna	-12363
▁Winter	-12364
▁forget	-12365
▁incred	-12366
▁intent	-12367
▁layers	-12368
▁metaph	-12369
▁recapt	-12370
▁scores	-12371
▁thinks	-12372
aliation	-12373
aturally	-12374
rometric	-12375
▁Battery	-12376
▁Bradman	-12377
▁Capital	-12378
▁Edition	-12379
▁Outside	-12380
▁Private	-12381
▁Trinity	-12382
▁absolut	-12383
▁alcohol	-12384
▁borders	-12385
▁damages	-12386
▁delight	-12387
▁emotion	-12388
▁ensuing	-12389
▁guitars	-12390
▁nearest	-12391
▁rituals	-12392
▁shipped	-12393
▁statues	-12394
▁studios	-12395
▁totally	-12396
▁wanting	-12397
ufficient	-12398
▁Americas	-12399
▁Brigades	-12400
▁Flotilla	-12401
▁Guinness	-12402
▁Pakistan	-12403
▁Taxonomy	-12404
▁Thailand	-12405
▁alliance	-12406
▁belonged	-12407
▁canceled	-12408
▁deciding	-12409
▁decrease	-12410
▁defender	-12411
▁elevated	-12412
▁eleventh	-12413
▁isotopes	-12414
▁mistaken	-12415
▁obsolete	-12416
▁overcome	-12417
▁playoffs	-12418
▁realised	-12419
▁reflects	-12420
▁removing	-12421
▁stopping	-12422
▁supplied	-12423
▁Barbarian	-12424
▁Shimomura	-12425
▁conquered	-12426
▁decreased	-12427
▁eliminate	-12428
▁governing	-12429
▁obstacles	-12430
▁proximity	-12431
▁regiments	-12432
▁reinforce	-12433
▁relocated	-12434
▁subjected	-12435
▁terrorist	-12436
▁Archbishop	-12437
▁Expressway	-12438
▁Lancashire	-12439
▁Technology	-12440
▁Yugoslavia	-12441
▁acceptance	-12442
▁attractive	-12443
▁categories	-12444
▁competitor	-12445
▁electrical	-12446
▁horizontal	-12447
▁preventing	-12448
▁proclaimed	-12449
▁relegation	-12450
▁speculated	-12451
▁suggestion	-12452
▁nightingale	-12453
▁restaurants	-12454
▁Subsequently	-12455
▁accomplished	-12456
▁imprisonment	-12457
▁recreational	-12458
▁precipitation	-12459
▁strengthening	-12460
▁traditionally	-12461
▁battlecruisers	-12462
▁decommissioned	-12463
BO	-12464
bi	-12465
dy	-12466
iu	-12467
vy	-12468
Bob	-12469
adh	-12470
ait	-12471
eto	-12472
gom	-12473
ika	-12474
onn	-12475
opy	-12476
ovi	-12477
▁AL	-12478
▁Tz	-12479
▁es	-12480
hand	-12481
iban	-12482
inas	-12483
inee	-12484
ouli	-12485
quet	-12486
rels	-12487
rino	-12488
tona	-12489
uskh	-12490
▁Dry	-12491
▁Eno	-12492
▁FIT	-12493
▁Fus	-12494
▁Ign	-12495
▁Ori	-12496
▁Pok	-12497
▁RFU	-12498
▁Seb	-12499
▁Sey	-12500
▁abn	-12501
▁aft	-12502
▁eld	-12503
▁guy	-12504
▁ion	-12505
▁mos	-12506
▁pig	-12507
▁unh	-12508
▁vin	-12509
adesh	-12510
elfth	-12511
ellor	-12512
emark	-12513
front	-12514
geant	-12515
itate	-12516
ogram	-12517
orian	-12518
owski	-12519
quest	-12520
ratch	-12521
rogen	-12522
▁Alph	-12523
▁Anim	-12524
▁Bask	-12525
▁Berg	-12526
▁Boot	-12527
▁Emer	-12528
▁Feel	-12529
▁Finn	-12530
▁Hold	-12531
▁Hous	-12532
▁Lear	-12533
▁Loch	-12534
▁Meth	-12535
▁Rush	-12536
▁Shaw	-12537
▁Talk	-12538
▁Uygh	-12539
▁coat	-12540
▁cuts	-12541
▁infl	-12542
▁meat	-12543
▁mere	-12544
▁milk	-12545
▁rape	-12546
▁rept	-12547
▁seal	-12548
▁sear	-12549
▁swit	-12550
▁vass	-12551
ennial	-12552
estock	-12553
gomery	-12554
houser	-12555
umping	-12556
▁Appro	-12557
▁Craig	-12558
▁Crist	-12559
▁Diego	-12560
▁Draft	-12561
▁Fifth	-12562
▁Micha	-12563
▁Perth	-12564
▁Pitts	-12565
▁Style	-12566
▁Sword	-12567
▁Timor	-12568
▁Truth	-12569
▁Urban	-12570
▁Wells	-12571
▁airst	-12572
▁annoy	-12573
▁boost	-12574
▁bread	-12575
▁cable	-12576
▁cameo	-12577
▁doors	-12578
▁dread	-12579
▁drink	-12580
▁error	-12581
▁knows	-12582
▁mobil	-12583
▁parks	-12584
▁paths	-12585
▁sails	-12586
▁stalk	-12587
▁unpre	-12588
itional	-12589
ongeBob	-12590
uskhuri	-12591
▁Artist	-12592
▁Assist	-12593
▁Bergen	-12594
▁Blacks	-12595
▁Easter	-12596
▁Father	-12597
▁Gerald	-12598
▁Mahesh	-12599
▁Poetry	-12600
▁clouds	-12601
▁coffee	-12602
▁corpor	-12603
▁debris	-12604
▁deputy	-12605
▁entert	-12606
▁explan	-12607
▁harass	-12608
▁hockey	-12609
▁insult	-12610
▁latest	-12611
▁liquid	-12612
▁orange	-12613
▁output	-12614
▁overth	-12615
▁reluct	-12616
▁resort	-12617
▁revolt	-12618
▁scales	-12619
▁tennis	-12620
metrical	-12621
rosaurus	-12622
▁Beijing	-12623
▁Belfast	-12624
▁Crystal	-12625
▁Earnest	-12626
▁Imagist	-12627
▁Mortier	-12628
▁Orleans	-12629
▁Pfaster	-12630
▁Theater	-12631
▁Wikiped	-12632
▁binding	-12633
▁confirm	-12634
▁debated	-12635
▁focuses	-12636
▁fossils	-12637
▁graphic	-12638
▁honours	-12639
▁lessons	-12640
▁monster	-12641
▁pleased	-12642
▁recount	-12643
▁reperto	-12644
▁strange	-12645
▁supreme	-12646
umberland	-12647
▁Augustus	-12648
▁Hedgehog	-12649
▁Montfort	-12650
▁Starting	-12651
▁barracks	-12652
▁borrowed	-12653
▁everyday	-12654
▁examined	-12655
▁exterior	-12656
▁guidance	-12657
▁indirect	-12658
▁messages	-12659
▁swimming	-12660
▁theaters	-12661
▁thorough	-12662
▁ultimate	-12663
▁unstable	-12664
▁warnings	-12665
▁Broadcast	-12666
▁Chronicle	-12667
▁Democrats	-12668
▁Katherine	-12669
▁SpongeBob	-12670
▁affecting	-12671
▁awareness	-12672
▁competing	-12673
▁contacted	-12674
▁contested	-12675
▁contracts	-12676
▁declaring	-12677
▁demanding	-12678
▁disappear	-12679
▁excavated	-12680
▁explosion	-12681
▁graduated	-12682
▁primitive	-12683
▁principle	-12684
▁rendition	-12685
▁respected	-12686
▁responses	-12687
▁Additional	-12688
▁Electronic	-12689
▁Montgomery	-12690
▁Thanhouser	-12691
▁Witchcraft	-12692
▁concerning	-12693
▁guerrillas	-12694
▁navigation	-12695
▁protesters	-12696
▁remembered	-12697
▁accusations	-12698
▁achievement	-12699
▁demographic	-12700
▁hygrometric	-12701
▁interrupted	-12702
▁specialized	-12703
▁descriptions	-12704
▁insufficient	-12705
▁nevertheless	-12706
▁supernatural	-12707
▁transcription	-12708
▁advertisements	-12709
CS	-12710
mi	-12711
wy	-12712
SPN	-12713
acc	-12714
ikh	-12715
iop	-12716
jin	-12717
nan	-12718
oso	-12719
pow	-12720
rut	-12721
tes	-12722
ums	-12723
yan	-12724
▁CA	-12725
▁Ve	-12726
▁cu	-12727
anim	-12728
ayed	-12729
bone	-12730
cont	-12731
elta	-12732
fric	-12733
inge	-12734
lies	-12735
uits	-12736
unta	-12737
yers	-12738
▁Doc	-12739
▁Jag	-12740
▁Jar	-12741
▁Kum	-12742
▁NME	-12743
▁Nik	-12744
▁Sic	-12745
▁aux	-12746
▁ben	-12747
▁cod	-12748
▁cyl	-12749
▁haz	-12750
▁nas	-12751
▁tap	-12752
appen	-12753
asant	-12754
iland	-12755
inich	-12756
leted	-12757
otihu	-12758
riors	-12759
roads	-12760
veill	-12761
▁Amyl	-12762
▁Berk	-12763
▁Case	-12764
▁Core	-12765
▁Crim	-12766
▁Cuba	-12767
▁ESPN	-12768
▁Emma	-12769
▁Fear	-12770
▁Flag	-12771
▁Flet	-12772
▁Gand	-12773
▁Guam	-12774
▁Hand	-12775
▁Hang	-12776
▁Hern	-12777
▁Josh	-12778
▁Moro	-12779
▁Mult	-12780
▁PAVN	-12781
▁Pont	-12782
▁Wilf	-12783
▁adds	-12784
▁butt	-12785
▁cats	-12786
▁demo	-12787
▁dign	-12788
▁ease	-12789
▁extr	-12790
▁fals	-12791
▁laud	-12792
▁leaf	-12793
▁mast	-12794
▁myel	-12795
▁nerv	-12796
▁oral	-12797
▁perf	-12798
▁pose	-12799
▁proc	-12800
▁quar	-12801
▁vent	-12802
acular	-12803
ellers	-12804
hattan	-12805
intage	-12806
isting	-12807
strong	-12808
▁Drama	-12809
▁Ferry	-12810
▁Gross	-12811
▁Helen	-12812
▁Katia	-12813
▁Kirby	-12814
▁Lunga	-12815
▁Rhode	-12816
▁Susan	-12817
▁Trade	-12818
▁Vishn	-12819
▁assum	-12820
▁besie	-12821
▁chase	-12822
▁facts	-12823
▁ferry	-12824
▁hence	-12825
▁illum	-12826
▁melod	-12827
▁relax	-12828
▁spark	-12829
▁spell	-12830
▁stuff	-12831
▁tawny	-12832
iferous	-12833
onation	-12834
rescent	-12835
▁Annals	-12836
▁Attale	-12837
▁Behind	-12838
▁Damage	-12839
▁Fisher	-12840
▁Gabbar	-12841
▁Heyman	-12842
▁Humpty	-12843
▁Mhalsa	-12844
▁Osbert	-12845
▁Stakes	-12846
▁Taiwan	-12847
▁Vargas	-12848
▁advent	-12849
▁analys	-12850
▁beside	-12851
▁coined	-12852
▁deGrom	-12853
▁easier	-12854
▁gammar	-12855
▁genres	-12856
▁improv	-12857
▁incons	-12858
▁median	-12859
▁rumors	-12860
▁sitcom	-12861
▁slaves	-12862
▁suffer	-12863
▁suited	-12864
▁summon	-12865
▁terror	-12866
▁thanks	-12867
▁worker	-12868
acements	-12869
anthodon	-12870
arnation	-12871
▁Blackie	-12872
▁Clement	-12873
▁Diamond	-12874
▁McElroy	-12875
▁Nazaire	-12876
▁Reserve	-12877
▁Teotihu	-12878
▁Wrestle	-12879
▁anthrop	-12880
▁batting	-12881
▁boilers	-12882
▁conting	-12883
▁distort	-12884
▁divines	-12885
▁envelop	-12886
▁erosion	-12887
▁frontal	-12888
▁harvest	-12889
▁labeled	-12890
▁lobster	-12891
▁painter	-12892
▁pursued	-12893
▁remixes	-12894
▁shelter	-12895
▁summary	-12896
▁tackles	-12897
▁veteran	-12898
▁villain	-12899
veillance	-12900
▁Allmusic	-12901
▁Buddhist	-12902
▁Colonies	-12903
▁Flanders	-12904
▁Highland	-12905
▁Lockport	-12906
▁Nuskhuri	-12907
▁blockade	-12908
▁compiled	-12909
▁drawings	-12910
▁eighteen	-12911
▁enlarged	-12912
▁exciting	-12913
▁explored	-12914
▁focusing	-12915
▁reporter	-12916
▁reserved	-12917
▁scenario	-12918
▁securing	-12919
▁skeleton	-12920
▁tracking	-12921
▁whatever	-12922
ologically	-12923
▁Bracknell	-12924
▁Coalition	-12925
▁Commodore	-12926
▁Engineers	-12927
▁Europeans	-12928
▁Manhattan	-12929
▁Rajamouli	-12930
▁Strapping	-12931
▁Terrorist	-12932
▁advocated	-12933
▁athletics	-12934
▁breakdown	-12935
▁coastline	-12936
▁comparing	-12937
▁contempor	-12938
▁donations	-12939
▁efficient	-12940
▁expanding	-12941
▁instances	-12942
▁passenger	-12943
▁persuaded	-12944
▁projected	-12945
▁proposals	-12946
▁retaining	-12947
▁seventeen	-12948
▁trunkline	-12949
▁witnessed	-12950
▁Expedition	-12951
▁Ganganelli	-12952
▁Historical	-12953
▁Protection	-12954
▁advantages	-12955
▁altarpiece	-12956
▁complained	-12957
▁decoration	-12958
▁fatalities	-12959
▁functional	-12960
▁highlights	-12961
▁imprisoned	-12962
▁semifinals	-12963
▁Paranthodon	-12964
▁anticipated	-12965
▁archipelago	-12966
▁astronomers	-12967
▁celebration	-12968
▁controlling	-12969
▁enforcement	-12970
▁interviewed	-12971
▁overwhelmed	-12972
▁achievements	-12973
▁incorporates	-12974
▁characterised	-12975
▁hygrometricus	-12976
▁substantially	-12977
▁Representatives	-12978
xi	-12979
aco	-12980
agh	-12981
fus	-12982
jib	-12983
lon	-12984
lot	-12985
riz	-12986
uru	-12987
íaz	-12988
▁Ax	-12989
▁Il	-12990
▁Yu	-12991
▁ZA	-12992
▁ol	-12993
ESCO	-12994
amas	-12995
boat	-12996
care	-12997
core	-12998
obee	-12999
opol	-13000
othy	-13001
oult	-13002
ovac	-13003
ovil	-13004
pike	-13005
uber	-13006
▁AOC	-13007
▁Ech	-13008
▁Ess	-13009
▁Get	-13010
▁ITV	-13011
▁Kod	-13012
▁NAS	-13013
▁NEA	-13014
▁Oke	-13015
▁Piz	-13016
▁ROK	-13017
▁Ral	-13018
▁SEC	-13019
▁SNL	-13020
▁Sri	-13021
▁cel	-13022
▁cra	-13023
▁cub	-13024
▁dad	-13025
▁ecl	-13026
▁lod	-13027
▁sor	-13028
Mania	-13029
acrit	-13030
apter	-13031
insky	-13032
izong	-13033
lance	-13034
lesey	-13035
nance	-13036
usade	-13037
▁Andr	-13038
▁Angl	-13039
▁Aren	-13040
▁Buen	-13041
▁Dawn	-13042
▁Díaz	-13043
▁Ezra	-13044
▁Grey	-13045
▁Lein	-13046
▁Mets	-13047
▁Palm	-13048
▁Unit	-13049
▁Wave	-13050
▁abst	-13051
▁barb	-13052
▁boom	-13053
▁flaw	-13054
▁herb	-13055
▁maps	-13056
▁nice	-13057
▁pulp	-13058
▁slip	-13059
▁ties	-13060
erdale	-13061
renton	-13062
ulator	-13063
ulsion	-13064
▁Break	-13065
▁Cobra	-13066
▁Fitts	-13067
▁Guang	-13068
▁Guerr	-13069
▁Janet	-13070
▁Large	-13071
▁Llosa	-13072
▁Peace	-13073
▁Price	-13074
▁Woman	-13075
▁bills	-13076
▁blame	-13077
▁blank	-13078
▁blind	-13079
▁cakes	-13080
▁chann	-13081
▁filmm	-13082
▁flatt	-13083
▁freed	-13084
▁fungi	-13085
▁gains	-13086
▁grace	-13087
▁heter	-13088
▁joins	-13089
▁obser	-13090
▁postp	-13091
▁probe	-13092
clusive	-13093
echobee	-13094
isphere	-13095
▁Aborig	-13096
▁Afghan	-13097
▁Archer	-13098
▁Beyond	-13099
▁Bruins	-13100
▁Davies	-13101
▁Fastra	-13102
▁Fringe	-13103
▁Gothic	-13104
▁Hunter	-13105
▁Monten	-13106
▁Newark	-13107
▁Oliver	-13108
▁Panzer	-13109
▁Pierre	-13110
▁Rafael	-13111
▁Saigon	-13112
▁Spirit	-13113
▁Steven	-13114
▁Stewie	-13115
▁UNESCO	-13116
▁Wolver	-13117
▁Yeovil	-13118
▁assign	-13119
▁blamed	-13120
▁bronze	-13121
▁cataly	-13122
▁cement	-13123
▁cooler	-13124
▁crafts	-13125
▁curren	-13126
▁delays	-13127
▁dimens	-13128
▁errors	-13129
▁fisher	-13130
▁harbor	-13131
▁killer	-13132
▁lesser	-13133
▁mixing	-13134
▁mutual	-13135
▁preval	-13136
▁stance	-13137
▁thesis	-13138
▁traces	-13139
tymology	-13140
▁Cadmium	-13141
▁Jenkins	-13142
▁Liberty	-13143
▁Maryang	-13144
▁McLaren	-13145
▁Picture	-13146
▁Soviets	-13147
▁Winston	-13148
▁aggress	-13149
▁amazing	-13150
▁cameras	-13151
▁chances	-13152
▁coaster	-13153
▁cooking	-13154
▁dischar	-13155
▁elderly	-13156
▁farming	-13157
▁farther	-13158
▁hanging	-13159
▁jealous	-13160
▁loyalty	-13161
▁prosper	-13162
▁reactor	-13163
▁recalls	-13164
▁sinking	-13165
▁tourism	-13166
▁Algernon	-13167
▁Anglesey	-13168
▁Armoured	-13169
▁Jennifer	-13170
▁Medieval	-13171
▁abundant	-13172
▁alphabet	-13173
▁clearing	-13174
▁costumes	-13175
▁disorder	-13176
▁elephant	-13177
▁gammarus	-13178
▁grandson	-13179
▁grossing	-13180
▁invented	-13181
▁lighting	-13182
▁midnight	-13183
▁peaceful	-13184
▁pointing	-13185
▁profound	-13186
▁prospect	-13187
▁register	-13188
▁shelters	-13189
▁shopping	-13190
▁survives	-13191
▁terrible	-13192
▁transits	-13193
▁treasure	-13194
▁Admiralty	-13195
▁Armstrong	-13196
▁Athletics	-13197
▁Biography	-13198
▁Executive	-13199
▁Friedrich	-13200
▁Northwest	-13201
▁Personnel	-13202
▁Reviewers	-13203
▁acclaimed	-13204
▁aggregate	-13205
▁arguments	-13206
▁comprises	-13207
▁continent	-13208
▁developer	-13209
▁dinosaurs	-13210
▁fortified	-13211
▁framework	-13212
▁improving	-13213
▁livestock	-13214
▁memorials	-13215
▁migration	-13216
▁nicknamed	-13217
▁practical	-13218
▁sanctuary	-13219
▁sentenced	-13220
▁unusually	-13221
▁Commercial	-13222
▁Lauderdale	-13223
▁Okeechobee	-13224
▁barometric	-13225
▁formations	-13226
▁innovative	-13227
▁introduces	-13228
▁percussion	-13229
▁repertoire	-13230
▁victorious	-13231
▁Springfield	-13232
▁Teotihuacan	-13233
▁allegations	-13234
▁dimensional	-13235
▁intelligent	-13236
▁journalists	-13237
▁legislative	-13238
▁overlooking	-13239
▁politically	-13240
▁threatening	-13241
▁WrestleMania	-13242
▁applications	-13243
▁disappointed	-13244
▁instrumental	-13245
▁preparations	-13246
▁demonstration	-13247
▁organisations	-13248
▁Constantinople	-13249
▁Northumberland	-13250
SU	-13251
fa	-13252
oi	-13253
CAR	-13254
iah	-13255
icy	-13256
mad	-13257
roc	-13258
ādv	-13259
▁CH	-13260
▁DJ	-13261
▁LN	-13262
▁PE	-13263
▁ts	-13264
▁ye	-13265
abad	-13266
acht	-13267
adir	-13268
bbie	-13269
bern	-13270
bits	-13271
feld	-13272
held	-13273
idan	-13274
inqu	-13275
itty	-13276
mill	-13277
ritt	-13278
soon	-13279
uble	-13280
ucks	-13281
ulty	-13282
unct	-13283
utor	-13284
very	-13285
▁Dra	-13286
▁Esc	-13287
▁Fez	-13288
▁Fig	-13289
▁Ich	-13290
▁Leo	-13291
▁Oil	-13292
▁RNA	-13293
▁Rhy	-13294
▁Typ	-13295
▁Yun	-13296
▁fet	-13297
▁sid	-13298
▁sou	-13299
▁unl	-13300
adows	-13301
amped	-13302
aning	-13303
apper	-13304
armed	-13305
chair	-13306
clair	-13307
etary	-13308
force	-13309
icing	-13310
igger	-13311
iture	-13312
oderm	-13313
oresc	-13314
plain	-13315
uania	-13316
uckle	-13317
ugged	-13318
▁Arbe	-13319
▁Away	-13320
▁Cert	-13321
▁Cost	-13322
▁Euro	-13323
▁Goat	-13324
▁Goeb	-13325
▁Guth	-13326
▁Hark	-13327
▁Hond	-13328
▁Joan	-13329
▁Mint	-13330
▁Pesh	-13331
▁RIAA	-13332
▁Ruth	-13333
▁Trou	-13334
▁cage	-13335
▁ears	-13336
▁fing	-13337
▁gate	-13338
▁hurd	-13339
▁jail	-13340
▁judo	-13341
▁mold	-13342
▁monk	-13343
▁puma	-13344
▁quit	-13345
▁tong	-13346
▁unve	-13347
▁ware	-13348
aneous	-13349
anners	-13350
berger	-13351
commun	-13352
iating	-13353
issart	-13354
orphic	-13355
ostere	-13356
otypes	-13357
overty	-13358
points	-13359
thodox	-13360
usader	-13361
uthier	-13362
▁Belie	-13363
▁Clair	-13364
▁Ellis	-13365
▁Franz	-13366
▁Given	-13367
▁Gwend	-13368
▁Hardy	-13369
▁Jerry	-13370
▁Lions	-13371
▁Manor	-13372
▁Muham	-13373
▁Peron	-13374
▁Plant	-13375
▁Verst	-13376
▁Voice	-13377
▁aging	-13378
▁farms	-13379
▁fever	-13380
▁foxes	-13381
▁kinds	-13382
▁loses	-13383
▁oxide	-13384
▁proof	-13385
▁recip	-13386
▁sugar	-13387
▁telev	-13388
▁tract	-13389
▁unrel	-13390
itating	-13391
osystem	-13392
quarter	-13393
rection	-13394
▁Allies	-13395
▁Danube	-13396
▁Exeter	-13397
▁Harvey	-13398
▁Kaiman	-13399
▁Lauren	-13400
▁Murphy	-13401
▁Powers	-13402
▁Prepar	-13403
▁Puppet	-13404
▁Savage	-13405
▁Screen	-13406
▁Shadow	-13407
▁Stones	-13408
▁Surviv	-13409
▁Thames	-13410
▁Voyage	-13411
▁accord	-13412
▁apolog	-13413
▁dining	-13414
▁ensued	-13415
▁fights	-13416
▁fossil	-13417
▁gospel	-13418
▁motifs	-13419
▁poster	-13420
▁saving	-13421
▁sketch	-13422
▁strain	-13423
▁submer	-13424
▁thirds	-13425
▁thread	-13426
▁throws	-13427
▁timing	-13428
▁Borough	-13429
▁Evening	-13430
▁Homarus	-13431
▁Indiana	-13432
▁Musical	-13433
▁Saginaw	-13434
▁Shaolin	-13435
▁acquire	-13436
▁beaches	-13437
▁careers	-13438
▁crucial	-13439
▁dismant	-13440
▁drought	-13441
▁favored	-13442
▁lighter	-13443
▁mammals	-13444
▁observe	-13445
▁parking	-13446
▁plumage	-13447
▁poverty	-13448
▁referee	-13449
▁revenge	-13450
▁romance	-13451
▁stretch	-13452
▁strikes	-13453
▁thereby	-13454
▁winners	-13455
▁Brothers	-13456
▁Bulgaria	-13457
▁Chemical	-13458
▁Claudius	-13459
▁Gauthier	-13460
▁Magdalen	-13461
▁McNichol	-13462
▁Wolfpack	-13463
▁adoption	-13464
▁assessed	-13465
▁averaged	-13466
▁conquest	-13467
▁corridor	-13468
▁decisive	-13469
▁dinosaur	-13470
▁disliked	-13471
▁escorted	-13472
▁fighters	-13473
▁fortress	-13474
▁heaviest	-13475
▁interven	-13476
▁maternal	-13477
▁millimet	-13478
▁millions	-13479
▁minerals	-13480
▁provoked	-13481
▁spelling	-13482
▁stingray	-13483
▁tensions	-13484
▁Authority	-13485
▁Brigadier	-13486
▁Guatemala	-13487
▁Lithuania	-13488
▁Wikipedia	-13489
▁abundance	-13490
▁carefully	-13491
▁exercised	-13492
▁inscribed	-13493
▁labyrinth	-13494
▁naturally	-13495
▁neglected	-13496
▁numbering	-13497
▁southward	-13498
▁supporter	-13499
▁undertook	-13500
▁Amylostere	-13501
▁Generation	-13502
▁Laboratory	-13503
▁Verstappen	-13504
▁attributes	-13505
▁collecting	-13506
▁collective	-13507
▁complement	-13508
▁compromise	-13509
▁contracted	-13510
▁directions	-13511
▁discussing	-13512
▁explicitly	-13513
▁regimental	-13514
▁screenplay	-13515
▁separately	-13516
▁Campbeltown	-13517
▁Information	-13518
▁Paralympics	-13519
▁Temnospondyl	-13520
▁commemorated	-13521
▁consequently	-13522
▁discontinued	-13523
▁participating	-13524
▁correspondence	-13525
▁transformation	-13526
▁instrumentation	-13527
és	-13528
ZAC	-13529
aak	-13530
cos	-13531
oro	-13532
▁Fa	-13533
▁Fr	-13534
▁Kw	-13535
▁UC	-13536
▁na	-13537
ahon	-13538
airn	-13539
bled	-13540
cock	-13541
elih	-13542
iker	-13543
ithm	-13544
lide	-13545
oped	-13546
rock	-13547
tzow	-13548
uman	-13549
▁Amy	-13550
▁ECU	-13551
▁Eld	-13552
▁FBI	-13553
▁Fac	-13554
▁Gao	-13555
▁Isa	-13556
▁Ise	-13557
▁Kaz	-13558
▁PAG	-13559
▁Sit	-13560
▁Tzu	-13561
▁Wey	-13562
▁awa	-13563
▁fra	-13564
▁jam	-13565
▁lib	-13566
▁nam	-13567
▁rer	-13568
▁upr	-13569
about	-13570
aguar	-13571
allas	-13572
asian	-13573
asury	-13574
ayana	-13575
ectic	-13576
encer	-13577
irate	-13578
ocese	-13579
oding	-13580
osely	-13581
rians	-13582
rific	-13583
▁Arik	-13584
▁Bach	-13585
▁Bros	-13586
▁Carr	-13587
▁Chau	-13588
▁Deal	-13589
▁IAAF	-13590
▁Indu	-13591
▁Liam	-13592
▁Mick	-13593
▁Mile	-13594
▁Ojib	-13595
▁Phys	-13596
▁Self	-13597
▁Timb	-13598
▁Yoko	-13599
▁bout	-13600
▁cock	-13601
▁dull	-13602
▁emig	-13603
▁epit	-13604
▁furn	-13605
▁golf	-13606
▁hybr	-13607
▁kiss	-13608
▁laps	-13609
▁pock	-13610
▁pope	-13611
▁rent	-13612
▁synd	-13613
astian	-13614
caster	-13615
family	-13616
isbury	-13617
itaire	-13618
lessly	-13619
ourage	-13620
sville	-13621
▁ANZAC	-13622
▁Aires	-13623
▁Armen	-13624
▁Catal	-13625
▁Chanc	-13626
▁Copia	-13627
▁Flair	-13628
▁Hakim	-13629
▁Henri	-13630
▁Hutch	-13631
▁Luzon	-13632
▁Megan	-13633
▁Merri	-13634
▁Money	-13635
▁Museo	-13636
▁Novak	-13637
▁Ralph	-13638
▁Recre	-13639
▁Saxon	-13640
▁Twins	-13641
▁algor	-13642
▁ambig	-13643
▁annex	-13644
▁blown	-13645
▁inhib	-13646
▁limbs	-13647
▁mason	-13648
▁medic	-13649
▁merge	-13650
▁modes	-13651
▁optim	-13652
▁oribi	-13653
▁posed	-13654
▁stump	-13655
▁tough	-13656
▁wears	-13657
acritic	-13658
astered	-13659
ctioned	-13660
elihood	-13661
etonius	-13662
▁Aldean	-13663
▁Basket	-13664
▁Booker	-13665
▁Buenos	-13666
▁Curtis	-13667
▁Dumpty	-13668
▁Hairan	-13669
▁Ingram	-13670
▁Judith	-13671
▁Junior	-13672
▁Metall	-13673
▁Monica	-13674
▁Moritz	-13675
▁NASCAR	-13676
▁Nation	-13677
▁PAGASA	-13678
▁Rapids	-13679
▁Rowley	-13680
▁Susque	-13681
▁Things	-13682
▁Weevil	-13683
▁barric	-13684
▁breast	-13685
▁breeds	-13686
▁canons	-13687
▁enable	-13688
▁exempt	-13689
▁filter	-13690
▁frames	-13691
▁harmon	-13692
▁judged	-13693
▁mammal	-13694
▁proced	-13695
▁remake	-13696
▁seated	-13697
▁shadow	-13698
▁silent	-13699
▁spikes	-13700
▁tactic	-13701
▁termed	-13702
▁tongue	-13703
▁unanim	-13704
ellation	-13705
▁Affairs	-13706
▁Attalea	-13707
▁Casting	-13708
▁Cruiser	-13709
▁Gaozong	-13710
▁Greater	-13711
▁Guthrie	-13712
▁Herbert	-13713
▁Hubbard	-13714
▁Lithuan	-13715
▁Middles	-13716
▁Notable	-13717
▁Platoon	-13718
▁Playing	-13719
▁Present	-13720
▁Schmitt	-13721
▁Vistara	-13722
▁Volunte	-13723
▁beneath	-13724
▁broadly	-13725
▁colored	-13726
▁defeats	-13727
▁estates	-13728
▁expense	-13729
▁fighter	-13730
▁filters	-13731
▁formula	-13732
▁fortune	-13733
▁mansion	-13734
▁monitor	-13735
▁orbital	-13736
▁outpost	-13737
▁overlap	-13738
▁prolong	-13739
▁publish	-13740
▁readily	-13741
▁rehabil	-13742
▁remixed	-13743
▁varying	-13744
▁verdict	-13745
▁warship	-13746
foundland	-13747
quartered	-13748
▁Adriatic	-13749
▁Bhairava	-13750
▁Brethren	-13751
▁Guerrero	-13752
▁Italians	-13753
▁Leinster	-13754
▁Pictures	-13755
▁Portrait	-13756
▁Sciences	-13757
▁Symphony	-13758
▁ancestry	-13759
▁anywhere	-13760
▁articles	-13761
▁authored	-13762
▁chambers	-13763
▁channels	-13764
▁editions	-13765
▁engaging	-13766
▁maritime	-13767
▁monaster	-13768
▁murdered	-13769
▁occupies	-13770
▁oriented	-13771
▁princess	-13772
▁proceeds	-13773
▁quarters	-13774
▁refugees	-13775
▁relevant	-13776
▁supports	-13777
▁tactical	-13778
▁woodland	-13779
▁Bulgarian	-13780
▁Chanology	-13781
▁Character	-13782
▁Salisbury	-13783
▁Suetonius	-13784
▁ancestors	-13785
▁broadside	-13786
▁coalition	-13787
▁ecosystem	-13788
▁listeners	-13789
▁placement	-13790
▁privately	-13791
▁revealing	-13792
▁submerged	-13793
▁telephone	-13794
▁thunderst	-13795
▁villagers	-13796
▁Importance	-13797
▁Paralympic	-13798
▁Underneath	-13799
▁accessible	-13800
▁architects	-13801
▁confluence	-13802
▁contribute	-13803
▁conviction	-13804
▁critically	-13805
▁downgraded	-13806
▁identifies	-13807
▁phenomenon	-13808
▁physically	-13809
▁protecting	-13810
▁underneath	-13811
▁Afghanistan	-13812
▁Underground	-13813
▁adaptations	-13814
▁manufacture	-13815
▁transmitted	-13816
▁Newfoundland	-13817
▁extraordinary	-13818
▁illustrations	-13819
▁northwestward	-13820
▁concentrations	-13821
▁superstructure	-13822
DA	-13823
ML	-13824
ggy	-13825
ido	-13826
nas	-13827
oga	-13828
sky	-13829
uen	-13830
usc	-13831
▁EU	-13832
▁Ib	-13833
▁fo	-13834
▁iT	-13835
addy	-13836
ardi	-13837
aser	-13838
cope	-13839
ecca	-13840
este	-13841
full	-13842
grid	-13843
ilyn	-13844
leys	-13845
list	-13846
lore	-13847
lude	-13848
oeuv	-13849
wine	-13850
▁Bin	-13851
▁Bun	-13852
▁Chi	-13853
▁Emb	-13854
▁Kab	-13855
▁Kap	-13856
▁Led	-13857
▁Lik	-13858
▁NOK	-13859
▁Pad	-13860
▁Ran	-13861
▁Syb	-13862
▁ank	-13863
▁toy	-13864
▁ups	-13865
▁web	-13866
andin	-13867
anner	-13868
elope	-13869
etics	-13870
ilogy	-13871
itall	-13872
ortal	-13873
otion	-13874
ouver	-13875
rator	-13876
space	-13877
swick	-13878
▁Aden	-13879
▁Boul	-13880
▁Cald	-13881
▁Doof	-13882
▁Glen	-13883
▁Hadd	-13884
▁Hamb	-13885
▁Hank	-13886
▁Ivan	-13887
▁Kahn	-13888
▁Lars	-13889
▁Must	-13890
▁Pion	-13891
▁Prev	-13892
▁Pros	-13893
▁Rear	-13894
▁Sett	-13895
▁Shop	-13896
▁Vinc	-13897
▁Wang	-13898
▁axis	-13899
▁epox	-13900
▁fees	-13901
▁funk	-13902
▁halt	-13903
▁hate	-13904
▁haun	-13905
▁judg	-13906
▁kids	-13907
▁mRNA	-13908
▁marg	-13909
▁masc	-13910
▁peer	-13911
▁rice	-13912
▁root	-13913
▁salt	-13914
▁spor	-13915
▁stip	-13916
▁tide	-13917
▁zero	-13918
arrass	-13919
ashing	-13920
icular	-13921
ivided	-13922
osomes	-13923
rowing	-13924
uclear	-13925
vation	-13926
ādvāda	-13927
▁Ansel	-13928
▁Aside	-13929
▁Coach	-13930
▁Colin	-13931
▁Films	-13932
▁Julia	-13933
▁Pearl	-13934
▁Robyn	-13935
▁Siege	-13936
▁Stopp	-13937
▁Stour	-13938
▁Torch	-13939
▁Wayne	-13940
▁Zhang	-13941
▁basal	-13942
▁dried	-13943
▁empty	-13944
▁honey	-13945
▁jumps	-13946
▁minim	-13947
▁roofs	-13948
▁shops	-13949
▁slope	-13950
▁snake	-13951
▁spans	-13952
▁spite	-13953
▁stiff	-13954
▁sweep	-13955
▁tales	-13956
▁theor	-13957
▁undef	-13958
endment	-13959
ivorous	-13960
▁Agripp	-13961
▁Barnes	-13962
▁Cadets	-13963
▁Edmund	-13964
▁Female	-13965
▁Harmon	-13966
▁Ingrid	-13967
▁Method	-13968
▁Mobile	-13969
▁Palmer	-13970
▁Rebbie	-13971
▁Shield	-13972
▁Warsaw	-13973
▁absent	-13974
▁acquis	-13975
▁admits	-13976
▁brutal	-13977
▁concur	-13978
▁copper	-13979
▁cruise	-13980
▁dinner	-13981
▁folded	-13982
▁gendar	-13983
▁hairst	-13984
▁interf	-13985
▁laying	-13986
▁manual	-13987
▁merged	-13988
▁notion	-13989
▁openly	-13990
▁papers	-13991
▁ruined	-13992
▁salmon	-13993
▁sealed	-13994
▁speaks	-13995
▁tackle	-13996
▁tended	-13997
▁traits	-13998
▁unders	-13999
▁voyage	-14000
ogenesis	-14001
renstein	-14002
▁Beatles	-14003
▁Chamber	-14004
▁Crimson	-14005
▁Domnall	-14006
▁Finland	-14007
▁Hamburg	-14008
▁Holland	-14009
▁Lebanon	-14010
▁Manager	-14011
▁Marilyn	-14012
▁McMahon	-14013
▁Peshkin	-14014
▁Susqueh	-14015
▁Tacitus	-14016
▁Variety	-14017
▁Various	-14018
▁Vickers	-14019
▁Written	-14020
▁arsenal	-14021
▁assured	-14022
▁cartoon	-14023
▁coupled	-14024
▁depends	-14025
▁endemic	-14026
▁ensured	-14027
▁enzymes	-14028
▁forever	-14029
▁grammar	-14030
▁issuing	-14031
▁manages	-14032
▁manoeuv	-14033
▁mistake	-14034
▁museums	-14035
▁realize	-14036
▁remarks	-14037
▁rumours	-14038
▁traders	-14039
▁variant	-14040
▁warrant	-14041
▁welcome	-14042
abilities	-14043
▁Basement	-14044
▁Domitian	-14045
▁Electric	-14046
▁Europium	-14047
▁Fountain	-14048
▁actively	-14049
▁adequate	-14050
▁analyzed	-14051
▁charting	-14052
▁coloured	-14053
▁daylight	-14054
▁diseases	-14055
▁infected	-14056
▁maneuver	-14057
▁manifest	-14058
▁overlook	-14059
▁patients	-14060
▁regained	-14061
▁reopened	-14062
▁retiring	-14063
▁sometime	-14064
▁troubles	-14065
▁Blackburn	-14066
▁Boulevard	-14067
▁Destroyer	-14068
▁Hospitall	-14069
▁Kaimanawa	-14070
▁Nashville	-14071
▁Offensive	-14072
▁Squadrons	-14073
▁affection	-14074
▁captivity	-14075
▁celebrity	-14076
▁colonists	-14077
▁composers	-14078
▁consensus	-14079
▁diversity	-14080
▁excessive	-14081
▁expecting	-14082
▁literally	-14083
▁monitored	-14084
▁poisoning	-14085
▁promising	-14086
▁reasoning	-14087
▁sovereign	-14088
▁trademark	-14089
▁Adventures	-14090
▁Basketball	-14091
▁Charleston	-14092
▁Confession	-14093
▁Metacritic	-14094
▁ceremonial	-14095
▁circulated	-14096
▁frustrated	-14097
▁insurgents	-14098
▁postseason	-14099
▁prominence	-14100
▁separation	-14101
▁substances	-14102
▁surprising	-14103
▁Nonetheless	-14104
▁Observatory	-14105
▁appreciated	-14106
▁coordinated	-14107
▁discussions	-14108
▁experiments	-14109
▁philosopher	-14110
▁sympathetic	-14111
▁withdrawing	-14112
▁continuously	-14113
▁downloadable	-14114
▁expectations	-14115
▁manufactured	-14116
▁southwestern	-14117
▁surveillance	-14118
▁manufacturers	-14119
ET	-14120
da	-14121
oa	-14122
sa	-14123
sk	-14124
DOT	-14125
aic	-14126
auc	-14127
gio	-14128
how	-14129
igo	-14130
uku	-14131
vol	-14132
▁Gh	-14133
▁NP	-14134
▁PD	-14135
▁Pt	-14136
▁pm	-14137
abwe	-14138
atro	-14139
aude	-14140
azon	-14141
beit	-14142
dish	-14143
empl	-14144
flow	-14145
grim	-14146
lims	-14147
ndom	-14148
ogle	-14149
ogns	-14150
pect	-14151
phae	-14152
qual	-14153
sons	-14154
ulum	-14155
urer	-14156
▁AIF	-14157
▁Ble	-14158
▁Cul	-14159
▁Cur	-14160
▁Env	-14161
▁Eps	-14162
▁Gle	-14163
▁Gru	-14164
▁Gry	-14165
▁Ket	-14166
▁Num	-14167
▁Roc	-14168
▁Sho	-14169
▁Toy	-14170
▁Was	-14171
▁Wid	-14172
▁aug	-14173
▁bot	-14174
▁cad	-14175
▁eru	-14176
▁joy	-14177
▁odd	-14178
▁ost	-14179
▁pad	-14180
▁sab	-14181
amedu	-14182
archy	-14183
awiil	-14184
cedes	-14185
corrh	-14186
enshm	-14187
erner	-14188
helor	-14189
iffer	-14190
ifted	-14191
iolet	-14192
ivial	-14193
odied	-14194
olate	-14195
onald	-14196
onium	-14197
rague	-14198
tures	-14199
usive	-14200
▁Anat	-14201
▁Boom	-14202
▁Carn	-14203
▁FITs	-14204
▁Feld	-14205
▁Fitz	-14206
▁Frid	-14207
▁Iber	-14208
▁Kend	-14209
▁Mast	-14210
▁Pend	-14211
▁Pomp	-14212
▁Reed	-14213
▁Rico	-14214
▁Seth	-14215
▁Suff	-14216
▁Tele	-14217
▁Trip	-14218
▁VIII	-14219
▁Vers	-14220
▁Vert	-14221
▁Zimb	-14222
▁bias	-14223
▁cany	-14224
▁carn	-14225
▁dads	-14226
▁drag	-14227
▁flav	-14228
▁grap	-14229
▁hemm	-14230
▁joke	-14231
▁lift	-14232
▁pent	-14233
▁seam	-14234
▁trap	-14235
▁upgr	-14236
▁wart	-14237
agonal	-14238
alsock	-14239
asting	-14240
employ	-14241
ischer	-14242
market	-14243
ogenic	-14244
omical	-14245
perors	-14246
▁Above	-14247
▁Armed	-14248
▁Carty	-14249
▁Delta	-14250
▁Frost	-14251
▁Fruit	-14252
▁GameS	-14253
▁Gerry	-14254
▁Happy	-14255
▁Males	-14256
▁Pusan	-14257
▁Robot	-14258
▁Scler	-14259
▁Using	-14260
▁arena	-14261
▁chlor	-14262
▁diary	-14263
▁fails	-14264
▁hopes	-14265
▁incor	-14266
▁irrig	-14267
▁proud	-14268
▁rises	-14269
▁rocky	-14270
▁sheet	-14271
▁solve	-14272
▁tends	-14273
▁therm	-14274
▁tying	-14275
▁unpop	-14276
▁worse	-14277
angered	-14278
astical	-14279
chestra	-14280
diction	-14281
prising	-14282
▁Across	-14283
▁Anselm	-14284
▁Charan	-14285
▁Comair	-14286
▁Comics	-14287
▁Delano	-14288
▁Dodger	-14289
▁Durand	-14290
▁Elbert	-14291
▁Escape	-14292
▁Munich	-14293
▁Number	-14294
▁Ojibwe	-14295
▁Report	-14296
▁Rights	-14297
▁Sussex	-14298
▁Vishnu	-14299
▁albeit	-14300
▁assume	-14301
▁breech	-14302
▁climax	-14303
▁comics	-14304
▁edible	-14305
▁eldest	-14306
▁fabric	-14307
▁iTunes	-14308
▁ornith	-14309
▁random	-14310
▁rubble	-14311
▁runner	-14312
▁satire	-14313
▁shoots	-14314
▁slowed	-14315
▁submit	-14316
▁subtle	-14317
igations	-14318
otherapy	-14319
tershire	-14320
▁Against	-14321
▁Bogside	-14322
▁Broncos	-14323
▁Buffalo	-14324
▁Control	-14325
▁Fiction	-14326
▁Horizon	-14327
▁Individ	-14328
▁Mothers	-14329
▁Muslims	-14330
▁Quarter	-14331
▁Scandin	-14332
▁Solomon	-14333
▁Tennant	-14334
▁Trenton	-14335
▁aquatic	-14336
▁circles	-14337
▁conclus	-14338
▁costume	-14339
▁degener	-14340
▁exagger	-14341
▁fitting	-14342
▁genuine	-14343
▁gliders	-14344
▁handful	-14345
▁kitchen	-14346
▁leather	-14347
▁lengthy	-14348
▁precise	-14349
▁slavery	-14350
▁visitor	-14351
ographies	-14352
▁Agricult	-14353
▁Boogaloo	-14354
▁Complete	-14355
▁Fighting	-14356
▁Fletcher	-14357
▁Leonardo	-14358
▁Movement	-14359
▁Regional	-14360
▁Sinclair	-14361
▁Ultimate	-14362
▁Zimbabwe	-14363
▁appealed	-14364
▁clusters	-14365
▁contrace	-14366
▁creature	-14367
▁deceased	-14368
▁educated	-14369
▁enduring	-14370
▁envision	-14371
▁inferior	-14372
▁innocent	-14373
▁keyboard	-14374
▁midfield	-14375
▁narrowly	-14376
▁performs	-14377
▁reagents	-14378
▁realizes	-14379
▁requests	-14380
▁scrapped	-14381
▁sediment	-14382
▁strictly	-14383
▁theories	-14384
▁Agrippina	-14385
▁Arikamedu	-14386
▁Assistant	-14387
▁Brunswick	-14388
▁Doofenshm	-14389
▁Geography	-14390
▁Gwendolen	-14391
▁Indolence	-14392
▁Loyalsock	-14393
▁Microsoft	-14394
▁Nicholson	-14395
▁abolished	-14396
▁achieving	-14397
▁ambitious	-14398
▁attackers	-14399
▁averaging	-14400
▁desperate	-14401
▁guerrilla	-14402
▁impedance	-14403
▁incursion	-14404
▁introduce	-14405
▁overnight	-14406
▁promoting	-14407
▁publicity	-14408
▁qualities	-14409
▁solitaire	-14410
▁specially	-14411
▁tributary	-14412
unicipality	-14413
▁Stansfield	-14414
▁Ultimately	-14415
▁altogether	-14416
▁attraction	-14417
▁ceremonies	-14418
▁conception	-14419
▁culminated	-14420
▁definitely	-14421
▁delivering	-14422
▁discipline	-14423
▁horsepower	-14424
▁instructed	-14425
▁integrated	-14426
▁monumental	-14427
▁progresses	-14428
▁protective	-14429
▁provisions	-14430
▁quantities	-14431
▁reflection	-14432
▁underwater	-14433
▁competitors	-14434
▁distinction	-14435
▁elimination	-14436
▁financially	-14437
▁prominently	-14438
▁resignation	-14439
▁Commandments	-14440
▁associations	-14441
▁displacement	-14442
▁manufacturer	-14443
▁predecessors	-14444
▁protagonists	-14445
▁confrontation	-14446
▁independently	-14447
▁psychological	-14448
▁accomplishments	-14449
LC	-14450
WG	-14451
fu	-14452
vo	-14453
bee	-14454
cat	-14455
dan	-14456
eus	-14457
iat	-14458
ibe	-14459
imp	-14460
ucc	-14461
éra	-14462
▁Gy	-14463
▁ST	-14464
▁je	-14465
IPRA	-14466
angs	-14467
arse	-14468
atts	-14469
colm	-14470
ello	-14471
ichi	-14472
iens	-14473
neum	-14474
ucle	-14475
uded	-14476
wing	-14477
zens	-14478
▁APF	-14479
▁Avt	-14480
▁Bac	-14481
▁CEO	-14482
▁Cit	-14483
▁Coc	-14484
▁Cou	-14485
▁Ely	-14486
▁Gem	-14487
▁Hew	-14488
▁Hip	-14489
▁Ist	-14490
▁Kra	-14491
▁Kur	-14492
▁LED	-14493
▁Lak	-14494
▁Lal	-14495
▁Ors	-14496
▁abb	-14497
▁alk	-14498
▁lev	-14499
▁omn	-14500
▁rim	-14501
▁sel	-14502
▁spo	-14503
▁upl	-14504
amboo	-14505
anche	-14506
arden	-14507
clesi	-14508
esque	-14509
ettel	-14510
eways	-14511
heads	-14512
immer	-14513
ipoli	-14514
offic	-14515
opard	-14516
raham	-14517
riers	-14518
stick	-14519
▁Anna	-14520
▁Appl	-14521
▁Auck	-14522
▁Aval	-14523
▁Buch	-14524
▁Cave	-14525
▁Ches	-14526
▁Drum	-14527
▁Glas	-14528
▁Hoys	-14529
▁Karn	-14530
▁Khoo	-14531
▁Kras	-14532
▁Llan	-14533
▁Luis	-14534
▁Mits	-14535
▁Mott	-14536
▁Term	-14537
▁Wake	-14538
▁Wemb	-14539
▁Zone	-14540
▁beak	-14541
▁boun	-14542
▁buff	-14543
▁dodo	-14544
▁empl	-14545
▁flee	-14546
▁gamb	-14547
▁hell	-14548
▁hunt	-14549
▁hurt	-14550
▁irre	-14551
▁lion	-14552
▁lung	-14553
▁mail	-14554
▁mock	-14555
▁puts	-14556
▁shed	-14557
▁spir	-14558
▁touc	-14559
Arthur	-14560
abling	-14561
alties	-14562
anning	-14563
ograms	-14564
omanry	-14565
uppets	-14566
▁Adolf	-14567
▁Burke	-14568
▁Chair	-14569
▁Essex	-14570
▁Filip	-14571
▁Flood	-14572
▁Hamar	-14573
▁Jenny	-14574
▁Karam	-14575
▁Lands	-14576
▁Moroc	-14577
▁Nancy	-14578
▁Peggy	-14579
▁Ports	-14580
▁Pruss	-14581
▁Range	-14582
▁Roads	-14583
▁Rules	-14584
▁Siber	-14585
▁Slamm	-14586
▁Tanya	-14587
▁Templ	-14588
▁Veeru	-14589
▁ZIPRA	-14590
▁capit	-14591
▁drunk	-14592
▁eaten	-14593
▁embry	-14594
▁encom	-14595
▁escal	-14596
▁fluid	-14597
▁fluor	-14598
▁hyper	-14599
▁input	-14600
▁junta	-14601
▁juris	-14602
▁lunar	-14603
▁mound	-14604
▁opted	-14605
▁owing	-14606
▁papal	-14607
▁photo	-14608
▁rails	-14609
▁riots	-14610
▁seize	-14611
▁sperm	-14612
▁swing	-14613
▁toxic	-14614
▁whist	-14615
▁widow	-14616
▁worsh	-14617
enstein	-14618
ertiary	-14619
limited	-14620
oselect	-14621
versely	-14622
▁Altern	-14623
▁Antiqu	-14624
▁Astron	-14625
▁Bloody	-14626
▁Campus	-14627
▁Choice	-14628
▁Colony	-14629
▁Disney	-14630
▁Duarte	-14631
▁Hispan	-14632
▁Jagann	-14633
▁Moment	-14634
▁Mostar	-14635
[...]
